<pad>	0
<unk>	0
<s>	0
</s>	0
▁t	-0
▁a	-1
▁th	-2
in	-3
▁the	-4
▁s	-5
▁w	-6
re	-7
▁o	-8
▁i	-9
er	-10
▁h	-11
at	-12
ou	-13
nd	-14
▁b	-15
▁c	-16
▁m	-17
on	-18
▁f	-19
en	-20
▁to	-21
ing	-22
▁p	-23
▁d	-24
ed	-25
▁and	-26
▁of	-27
or	-28
es	-29
an	-30
▁l	-31
ll	-32
▁in	-33
is	-34
it	-35
▁y	-36
ar	-37
▁g	-38
▁n	-39
as	-40
▁you	-41
om	-42
▁u	-43
▁that	-44
▁wh	-45
ic	-46
▁e	-47
▁it	-48
▁be	-49
ow	-50
le	-51
ve	-52
al	-53
▁we	-54
ot	-55
ion	-56
st	-57
▁he	-58
ut	-59
▁ha	-60
▁re	-61
▁is	-62
se	-63
▁on	-64
et	-65
ay	-66
ent	-67
gh	-68
id	-69
ac	-70
ly	-71
ld	-72
ver	-73
▁for	-74
▁st	-75
▁r	-76
▁so	-77
▁was	-78
ke	-79
im	-80
▁sh	-81
ur	-82
ith	-83
▁as	-84
am	-85
▁this	-86
ir	-87
▁k	-88
▁with	-89
all	-90
▁an	-91
ct	-92
ad	-93
▁li	-94
ro	-95
ght	-96
ch	-97
ce	-98
oo	-99
▁j	-100
▁se	-101
th	-102
▁not	-103
▁but	-104
▁uh	-105
▁at	-106
▁do	-107
▁have	-108
▁me	-109
ter	-110
ri	-111
ation	-112
ould	-113
ill	-114
▁are	-115
▁go	-116
▁ch	-117
▁they	-118
▁his	-119
ust	-120
▁de	-121
▁ne	-122
il	-123
ome	-124
ain	-125
▁su	-126
▁mo	-127
▁con	-128
▁or	-129
ere	-130
▁fr	-131
▁al	-132
▁kn	-133
▁what	-134
ight	-135
▁can	-136
ess	-137
op	-138
ant	-139
▁like	-140
ul	-141
▁there	-142
▁v	-143
qu	-144
ge	-145
▁all	-146
ally	-147
▁ab	-148
ers	-149
▁had	-150
pp	-151
▁my	-152
▁ex	-153
est	-154
▁know	-155
▁com	-156
us	-157
▁one	-158
▁by	-159
out	-160
▁from	-161
▁pro	-162
ol	-163
ab	-164
▁if	-165
▁her	-166
ate	-167
and	-168
art	-169
very	-170
▁wor	-171
▁she	-172
▁up	-173
un	-174
ich	-175
▁sa	-176
▁tr	-177
▁sp	-178
ist	-179
um	-180
res	-181
▁just	-182
if	-183
▁your	-184
ind	-185
ard	-186
em	-187
▁le	-188
ive	-189
os	-190
ig	-191
▁out	-192
her	-193
el	-194
nt	-195
▁int	-196
▁which	-197
ect	-198
ap	-199
▁him	-200
au	-201
ity	-202
▁no	-203
▁about	-204
king	-205
ort	-206
▁pl	-207
our	-208
ame	-209
▁when	-210
▁some	-211
▁were	-212
ast	-213
rou	-214
▁man	-215
ie	-216
▁who	-217
▁us	-218
▁ye	-219
ack	-220
▁will	-221
▁ma	-222
ood	-223
▁then	-224
red	-225
▁would	-226
one	-227
▁them	-228
▁now	-229
ous	-230
ment	-231
▁tim	-232
ink	-233
▁uhm	-234
ies	-235
ong	-236
▁qu	-237
▁bec	-238
▁get	-239
▁how	-240
ook	-241
▁fe	-242
▁co	-243
▁en	-244
▁te	-245
▁here	-246
▁more	-247
▁cl	-248
iv	-249
▁their	-250
ore	-251
▁see	-252
▁pe	-253
ure	-254
ine	-255
▁un	-256
ide	-257
ause	-258
▁said	-259
itt	-260
ish	-261
▁ag	-262
ose	-263
▁our	-264
ck	-265
▁any	-266
▁pr	-267
ud	-268
ag	-269
ci	-270
▁been	-271
ther	-272
▁think	-273
ace	-274
▁don	-275
▁time	-276
reat	-277
▁thing	-278
▁lo	-279
▁im	-280
▁than	-281
▁has	-282
▁say	-283
▁ar	-284
▁am	-285
pt	-286
hing	-287
▁ad	-288
▁ta	-289
ven	-290
▁tw	-291
▁right	-292
▁very	-293
act	-294
ff	-295
own	-296
are	-297
ice	-298
▁did	-299
sel	-300
▁into	-301
od	-302
ry	-303
age	-304
▁these	-305
ions	-306
ite	-307
▁well	-308
▁going	-309
▁want	-310
▁because	-311
▁could	-312
so	-313
▁peop	-314
per	-315
▁people	-316
▁br	-317
pl	-318
ber	-319
▁let	-320
▁over	-321
▁other	-322
ah	-323
nder	-324
ach	-325
ans	-326
▁gr	-327
▁po	-328
▁ro	-329
ass	-330
▁look	-331
ound	-332
▁ac	-333
ree	-334
way	-335
▁every	-336
end	-337
▁part	-338
ence	-339
▁comp	-340
able	-341
ep	-342
iz	-343
▁act	-344
▁where	-345
ick	-346
ble	-347
▁'	-348
ance	-349
▁fir	-350
▁cont	-351
▁way	-352
▁good	-353
▁af	-354
▁also	-355
▁two	-356
ars	-357
▁bl	-358
▁really	-359
ip	-360
▁dis	-361
ittle	-362
▁back	-363
ue	-364
▁little	-365
▁first	-366
ated	-367
omet	-368
▁off	-369
self	-370
▁thou	-371
▁app	-372
ire	-373
av	-374
▁per	-375
▁may	-376
▁again	-377
ary	-378
▁pre	-379
▁work	-380
▁somet	-381
ak	-382
▁got	-383
ang	-384
na	-385
ress	-386
▁day	-387
▁mu	-388
▁only	-389
▁res	-390
ount	-391
ade	-392
other	-393
iff	-394
ra	-395
▁fl	-396
▁down	-397
▁too	-398
co	-399
fore	-400
▁new	-401
▁after	-402
urn	-403
▁gu	-404
ase	-405
▁sc	-406
ile	-407
▁make	-408
▁comm	-409
▁imp	-410
ult	-411
▁great	-412
▁need	-413
ered	-414
ord	-415
▁should	-416
int	-417
▁even	-418
▁bet	-419
▁bo	-420
wn	-421
▁spe	-422
▁much	-423
▁ind	-424
▁those	-425
▁fo	-426
ild	-427
ia	-428
▁under	-429
▁ok	-430
▁diff	-431
ved	-432
ical	-433
cl	-434
ually	-435
▁mar	-436
▁okay	-437
orm	-438
rough	-439
ations	-440
▁through	-441
▁things	-442
ign	-443
▁str	-444
▁kind	-445
ft	-446
fe	-447
ath	-448
ious	-449
cess	-450
▁rem	-451
ens	-452
▁call	-453
▁before	-454
ving	-455
▁tal	-456
ater	-457
ory	-458
ave	-459
▁come	-460
ull	-461
▁something	-462
ning	-463
▁take	-464
▁ke	-465
▁des	-466
▁its	-467
ub	-468
we	-469
▁sm	-470
▁jo	-471
round	-472
og	-473
▁long	-474
▁most	-475
▁oh	-476
xt	-477
▁hand	-478
ful	-479
ple	-480
▁em	-481
ition	-482
ian	-483
igh	-484
▁many	-485
uct	-486
ys	-487
ward	-488
oth	-489
▁gon	-490
▁ph	-491
▁cr	-492
▁made	-493
▁start	-494
▁ser	-495
▁ob	-496
▁gonna	-497
ial	-498
▁wr	-499
▁use	-500
▁does	-501
ied	-502
▁happ	-503
ty	-504
▁sl	-505
▁differe	-506
iss	-507
▁bu	-508
▁being	-509
ents	-510
ors	-511
▁put	-512
ked	-513
ady	-514
▁rep	-515
ting	-516
▁cons	-517
vel	-518
ise	-519
tain	-520
ody	-521
ces	-522
▁lot	-523
ail	-524
ks	-525
vers	-526
▁yeah	-527
▁mean	-528
be	-529
▁never	-530
▁why	-531
▁still	-532
ather	-533
▁such	-534
ons	-535
thing	-536
▁mr	-537
▁bel	-538
ily	-539
▁car	-540
▁life	-541
ict	-542
▁att	-543
▁own	-544
▁might	-545
▁hel	-546
▁cour	-547
de	-548
▁pos	-549
▁exp	-550
ject	-551
ough	-552
▁inf	-553
▁end	-554
▁world	-555
▁gen	-556
▁pres	-557
▁quest	-558
▁sy	-559
▁min	-560
▁gl	-561
▁ear	-562
▁pers	-563
▁same	-564
▁old	-565
llow	-566
▁op	-567
▁inter	-568
▁three	-569
▁rel	-570
▁actually	-571
▁last	-572
▁inst	-573
atch	-574
▁ho	-575
ves	-576
ness	-577
ren	-578
▁tell	-579
▁la	-580
ool	-581
▁another	-582
▁thought	-583
▁feel	-584
ange	-585
▁different	-586
erm	-587
▁supp	-588
▁find	-589
ever	-590
uc	-591
get	-592
▁high	-593
air	-594
▁acc	-595
▁set	-596
led	-597
ual	-598
▁add	-599
les	-600
▁show	-601
ope	-602
▁years	-603
▁came	-604
▁ent	-605
▁must	-606
ates	-607
▁help	-608
▁try	-609
▁form	-610
▁sub	-611
▁upon	-612
ible	-613
▁point	-614
▁play	-615
ower	-616
ways	-617
▁ev	-618
▁word	-619
day	-620
▁eng	-621
▁god	-622
ouse	-623
ph	-624
▁beg	-625
▁turn	-626
▁count	-627
▁mon	-628
▁reg	-629
▁give	-630
▁next	-631
▁fri	-632
▁found	-633
▁num	-634
▁bit	-635
▁love	-636
▁went	-637
der	-638
te	-639
ings	-640
▁dr	-641
▁pass	-642
▁while	-643
lect	-644
▁head	-645
▁always	-646
ib	-647
▁stud	-648
ried	-649
▁char	-650
ular	-651
▁el	-652
▁yes	-653
▁bas	-654
▁ey	-655
▁sim	-656
▁open	-657
▁rec	-658
▁away	-659
▁far	-660
ared	-661
▁around	-662
▁seem	-663
▁place	-664
▁sur	-665
▁sure	-666
▁fin	-667
▁real	-668
ited	-669
ating	-670
▁men	-671
lic	-672
▁doing	-673
▁gener	-674
▁inv	-675
▁cor	-676
ark	-677
▁sch	-678
▁each	-679
ix	-680
right	-681
▁def	-682
▁met	-683
▁war	-684
▁house	-685
mo	-686
als	-687
ne	-688
atter	-689
ically	-690
▁person	-691
▁big	-692
▁inc	-693
pe	-694
▁cap	-695
▁dist	-696
▁ed	-697
ince	-698
▁wom	-699
▁ref	-700
ative	-701
▁loo	-702
▁once	-703
▁ins	-704
▁called	-705
▁friend	-706
ities	-707
ween	-708
ute	-709
gr	-710
▁between	-711
body	-712
▁used	-713
ss	-714
▁keep	-715
▁ass	-716
▁col	-717
cond	-718
▁z	-719
gg	-720
▁without	-721
▁done	-722
▁giv	-723
▁ple	-724
▁ret	-725
▁conf	-726
▁course	-727
land	-728
cept	-729
ew	-730
▁both	-731
▁dec	-732
▁exam	-733
▁lear	-734
▁child	-735
ner	-736
▁cur	-737
▁cent	-738
ments	-739
▁pol	-740
▁follow	-741
olog	-742
▁though	-743
▁cle	-744
▁better	-745
▁home	-746
▁second	-747
▁sou	-748
▁wa	-749
▁night	-750
▁year	-751
ock	-752
ably	-753
▁import	-754
▁light	-755
erest	-756
▁didn	-757
▁run	-758
▁left	-759
ier	-760
cial	-761
ific	-762
▁talk	-763
ced	-764
▁mom	-765
ps	-766
▁fam	-767
ell	-768
▁mor	-769
▁belie	-770
ertain	-771
▁che	-772
▁list	-773
▁name	-774
▁hard	-775
▁bre	-776
lish	-777
▁nor	-778
stem	-779
▁four	-780
▁ever	-781
▁question	-782
sw	-783
▁read	-784
▁interest	-785
▁dep	-786
▁few	-787
▁ide	-788
▁trans	-789
▁mind	-790
▁nothing	-791
arch	-792
ense	-793
▁thank	-794
▁lar	-795
▁prod	-796
uring	-797
▁hum	-798
▁miss	-799
ures	-800
▁number	-801
ng	-802
▁care	-803
▁eff	-804
▁room	-805
ics	-806
▁sw	-807
▁himself	-808
ction	-809
▁underst	-810
kes	-811
▁bus	-812
ash	-813
▁fact	-814
ken	-815
▁arm	-816
▁fun	-817
ten	-818
▁water	-819
▁happen	-820
ention	-821
oy	-822
uck	-823
▁state	-824
▁poss	-825
▁system	-826
▁saw	-827
ts	-828
▁answ	-829
▁side	-830
▁power	-831
ility	-832
iness	-833
iew	-834
its	-835
ted	-836
▁coll	-837
▁looking	-838
und	-839
▁ext	-840
▁gre	-841
▁nat	-842
ead	-843
row	-844
▁face	-845
ism	-846
▁maybe	-847
ross	-848
hip	-849
ason	-850
pect	-851
▁yea	-852
▁yet	-853
▁young	-854
▁today	-855
ution	-856
▁sk	-857
rib	-858
cy	-859
▁equ	-860
▁ty	-861
▁dat	-862
▁unt	-863
▁small	-864
▁eas	-865
▁par	-866
▁hal	-867
man	-868
up	-869
▁exper	-870
▁prob	-871
▁took	-872
▁book	-873
cc	-874
▁adv	-875
▁stand	-876
az	-877
▁best	-878
▁rest	-879
▁able	-880
▁eyes	-881
ird	-882
▁anything	-883
uth	-884
▁whole	-885
▁cou	-886
▁having	-887
ational	-888
▁red	-889
▁important	-890
▁dire	-891
less	-892
▁pret	-893
▁pub	-894
▁wal	-895
▁bro	-896
▁det	-897
▁val	-898
▁watch	-899
ently	-900
ank	-901
cus	-902
▁beh	-903
▁less	-904
▁sign	-905
ize	-906
▁since	-907
▁commun	-908
▁wee	-909
▁art	-910
br	-911
▁partic	-912
▁understand	-913
▁sort	-914
▁heart	-915
▁shall	-916
▁enough	-917
oc	-918
▁against	-919
▁move	-920
▁certain	-921
wh	-922
clud	-923
amp	-924
▁mem	-925
ized	-926
ling	-927
ines	-928
▁vis	-929
oney	-930
▁seen	-931
ton	-932
▁toget	-933
▁together	-934
▁contin	-935
vern	-936
ters	-937
ember	-938
ither	-939
osed	-940
gn	-941
▁vide	-942
▁everything	-943
▁perf	-944
▁es	-945
▁alright	-946
▁stre	-947
ined	-948
ired	-949
▁prov	-950
ins	-951
uff	-952
▁quite	-953
▁pur	-954
▁air	-955
▁plan	-956
▁times	-957
▁chr	-958
▁cre	-959
▁top	-960
▁means	-961
▁moment	-962
▁king	-963
most	-964
▁med	-965
▁hear	-966
ully	-967
▁land	-968
ger	-969
io	-970
ield	-971
eric	-972
ready	-973
ont	-974
▁hour	-975
▁compan	-976
▁comple	-977
▁already	-978
▁half	-979
velop	-980
ale	-981
▁build	-982
ric	-983
▁	-984
e	-985
t	-986
a	-987
o	-988
i	-989
n	-990
s	-991
h	-992
r	-993
l	-994
d	-995
u	-996
c	-997
m	-998
w	-999
y	-1000
g	-1001
f	-1002
p	-1003
b	-1004
v	-1005
k	-1006
'	-1007
j	-1008
x	-1009
q	-1010
0	-1011
z	-1012
1	-1013
-	-1014
2	-1015
9	-1016
5	-1017
3	-1018
4	-1019
