<pad>	0
<unk>	0
<s>	0
</s>	0
▁t	-0
▁th	-1
▁a	-2
▁i	-3
▁the	-4
▁s	-5
▁w	-6
re	-7
▁o	-8
in	-9
at	-10
er	-11
ou	-12
▁c	-13
nd	-14
▁b	-15
▁h	-16
on	-17
▁m	-18
ing	-19
▁f	-20
▁p	-21
▁to	-22
en	-23
▁d	-24
an	-25
▁y	-26
▁and	-27
▁l	-28
es	-29
or	-30
ll	-31
▁of	-32
ed	-33
▁in	-34
▁g	-35
▁you	-36
it	-37
is	-38
ar	-39
▁u	-40
▁n	-41
▁that	-42
as	-43
om	-44
ic	-45
▁it	-46
al	-47
ve	-48
ow	-49
▁we	-50
▁e	-51
ion	-52
▁wh	-53
le	-54
▁is	-55
▁be	-56
st	-57
▁re	-58
ot	-59
et	-60
ut	-61
▁on	-62
ay	-63
se	-64
ent	-65
▁so	-66
▁ha	-67
ct	-68
ke	-69
▁he	-70
ig	-71
▁this	-72
ver	-73
▁for	-74
ro	-75
▁st	-76
▁uh	-77
id	-78
all	-79
▁k	-80
ch	-81
ly	-82
ld	-83
▁li	-84
am	-85
▁j	-86
▁go	-87
ur	-88
ce	-89
▁r	-90
▁an	-91
im	-92
ith	-93
▁as	-94
▁do	-95
▁was	-96
ad	-97
ht	-98
▁se	-99
▁with	-100
▁have	-101
ir	-102
th	-103
ation	-104
▁are	-105
▁like	-106
ust	-107
▁sh	-108
▁can	-109
ally	-110
ight	-111
▁but	-112
▁what	-113
▁me	-114
▁kn	-115
▁or	-116
▁com	-117
▁they	-118
▁mo	-119
▁ne	-120
op	-121
▁not	-122
▁ch	-123
▁al	-124
▁at	-125
ck	-126
▁know	-127
ol	-128
ill	-129
▁de	-130
ant	-131
il	-132
▁ab	-133
▁con	-134
ter	-135
▁there	-136
▁fr	-137
▁som	-138
ere	-139
od	-140
ra	-141
▁pro	-142
▁just	-143
ul	-144
ould	-145
▁v	-146
ge	-147
ers	-148
qu	-149
▁su	-150
▁lo	-151
out	-152
▁ex	-153
est	-154
pp	-155
▁if	-156
ate	-157
ess	-158
▁all	-159
us	-160
ea	-161
▁one	-162
▁your	-163
▁uhm	-164
ist	-165
▁wor	-166
art	-167
ain	-168
▁my	-169
very	-170
ab	-171
un	-172
if	-173
um	-174
ive	-175
▁about	-176
▁from	-177
ok	-178
au	-179
ri	-180
ink	-181
pe	-182
ity	-183
▁by	-184
▁ma	-185
ind	-186
nt	-187
ort	-188
▁us	-189
▁get	-190
▁some	-191
em	-192
▁don	-193
▁out	-194
▁up	-195
res	-196
▁bec	-197
▁pl	-198
and	-199
rou	-200
ie	-201
ment	-202
▁int	-203
▁here	-204
os	-205
el	-206
ause	-207
▁think	-208
▁now	-209
▁tr	-210
▁le	-211
▁co	-212
ack	-213
▁how	-214
ies	-215
▁then	-216
ard	-217
▁tim	-218
▁when	-219
ich	-220
ame	-221
▁will	-222
her	-223
▁right	-224
▁see	-225
ast	-226
ect	-227
▁pe	-228
our	-229
▁going	-230
ure	-231
▁because	-232
▁thing	-233
▁qu	-234
ci	-235
ide	-236
so	-237
ine	-238
ud	-239
▁our	-240
▁en	-241
▁want	-242
iv	-243
▁more	-244
gh	-245
▁no	-246
▁cl	-247
▁peop	-248
▁people	-249
▁which	-250
▁would	-251
▁sp	-252
▁te	-253
▁who	-254
▁man	-255
▁look	-256
▁really	-257
▁them	-258
▁say	-259
are	-260
▁ta	-261
▁time	-262
▁these	-263
king	-264
pt	-265
▁were	-266
ther	-267
na	-268
ions	-269
▁also	-270
▁act	-271
▁sa	-272
▁has	-273
ose	-274
▁had	-275
▁im	-276
one	-277
▁fe	-278
▁yea	-279
▁un	-280
▁any	-281
ore	-282
per	-283
▁than	-284
▁ad	-285
▁let	-286
ong	-287
▁comp	-288
▁ag	-289
▁well	-290
ber	-291
ous	-292
ans	-293
iz	-294
hing	-295
▁very	-296
age	-297
▁his	-298
act	-299
▁ev	-300
ice	-301
ff	-302
itt	-303
▁tw	-304
▁ok	-305
▁their	-306
▁okay	-307
▁did	-308
reat	-309
▁part	-310
ite	-311
▁other	-312
▁every	-313
▁got	-314
▁cont	-315
▁am	-316
▁into	-317
ear	-318
ag	-319
ish	-320
▁where	-321
▁over	-322
▁way	-323
▁need	-324
▁fir	-325
ip	-326
▁work	-327
▁ar	-328
▁po	-329
ree	-330
▁been	-331
▁somet	-332
ry	-333
▁she	-334
▁pr	-335
▁back	-336
▁ro	-337
ually	-338
own	-339
▁ac	-340
og	-341
▁first	-342
ire	-343
pl	-344
ace	-345
ick	-346
▁two	-347
▁good	-348
▁gu	-349
ue	-350
iff	-351
ble	-352
▁pre	-353
ated	-354
nder	-355
ass	-356
▁gon	-357
▁may	-358
ia	-359
▁diff	-360
▁gonna	-361
ase	-362
▁new	-363
▁res	-364
▁could	-365
▁bo	-366
way	-367
ical	-368
ap	-369
ach	-370
ult	-371
▁comm	-372
ep	-373
▁year	-374
ence	-375
▁fo	-376
▁kind	-377
▁app	-378
▁off	-379
▁make	-380
orm	-381
able	-382
▁yeah	-383
ary	-384
ations	-385
▁tal	-386
▁imp	-387
▁her	-388
ac	-389
int	-390
ang	-391
▁dis	-392
▁mu	-393
▁things	-394
▁something	-395
vel	-396
▁those	-397
▁lot	-398
▁br	-399
ance	-400
be	-401
ittle	-402
ome	-403
▁little	-404
ound	-405
▁use	-406
▁start	-407
▁sc	-408
▁per	-409
▁bl	-410
▁oh	-411
▁af	-412
▁differe	-413
ple	-414
xt	-415
▁again	-416
cess	-417
ount	-418
uct	-419
▁bu	-420
ens	-421
ress	-422
▁actually	-423
▁inc	-424
ign	-425
co	-426
▁bet	-427
▁down	-428
▁much	-429
▁does	-430
round	-431
ving	-432
▁call	-433
ys	-434
rough	-435
▁him	-436
▁take	-437
ory	-438
▁even	-439
ater	-440
▁through	-441
▁ind	-442
ning	-443
▁only	-444
ial	-445
sel	-446
▁spe	-447
▁ph	-448
av	-449
ition	-450
▁said	-451
▁mar	-452
▁mean	-453
▁under	-454
ord	-455
ian	-456
other	-457
ile	-458
vers	-459
ents	-460
▁day	-461
▁ke	-462
▁different	-463
ild	-464
▁fl	-465
▁happ	-466
▁sy	-467
▁em	-468
ough	-469
▁most	-470
ody	-471
▁quest	-472
ting	-473
ks	-474
ade	-475
▁many	-476
ght	-477
▁after	-478
▁jo	-479
form	-480
ub	-481
ah	-482
fe	-483
▁should	-484
day	-485
▁inter	-486
▁des	-487
fore	-488
▁hel	-489
▁ser	-490
ph	-491
▁put	-492
▁gr	-493
▁rem	-494
ors	-495
▁great	-496
ces	-497
▁try	-498
▁fu	-499
▁why	-500
▁rec	-501
▁min	-502
▁come	-503
red	-504
thing	-505
▁wr	-506
▁being	-507
ft	-508
ved	-509
▁tra	-510
ious	-511
▁bas	-512
▁str	-513
ject	-514
ail	-515
▁help	-516
▁play	-517
▁id	-518
▁bit	-519
erm	-520
▁world	-521
▁pers	-522
wn	-523
▁num	-524
▁add	-525
▁rel	-526
▁show	-527
ath	-528
▁stud	-529
ict	-530
ates	-531
▁three	-532
we	-533
▁before	-534
ak	-535
▁feel	-536
▁gen	-537
▁sm	-538
▁cons	-539
▁doing	-540
▁point	-541
ual	-542
▁same	-543
oth	-544
▁hig	-545
self	-546
▁inst	-547
▁next	-548
ically	-549
▁end	-550
ty	-551
▁talk	-552
▁still	-553
te	-554
get	-555
ange	-556
ons	-557
▁car	-558
atch	-559
▁around	-560
▁its	-561
▁ob	-562
urn	-563
▁find	-564
ful	-565
ction	-566
▁long	-567
▁years	-568
les	-569
lic	-570
▁ear	-571
▁too	-572
iss	-573
▁another	-574
▁rep	-575
▁sl	-576
▁ho	-577
▁pos	-578
ever	-579
▁set	-580
▁supp	-581
olog	-582
▁dec	-583
▁big	-584
ves	-585
▁form	-586
▁sub	-587
▁bel	-588
▁cr	-589
stem	-590
nds	-591
▁op	-592
ower	-593
▁cour	-594
uc	-595
▁sim	-596
▁z	-597
▁real	-598
ular	-599
▁exam	-600
▁reg	-601
▁dat	-602
ward	-603
ady	-604
▁mod	-605
ily	-606
cial	-607
▁today	-608
▁pres	-609
ative	-610
▁fin	-611
▁mon	-612
gr	-613
▁sch	-614
▁last	-615
▁la	-616
▁thank	-617
▁maybe	-618
▁tell	-619
▁life	-620
ways	-621
ise	-622
▁import	-623
▁att	-624
▁used	-625
▁system	-626
▁inv	-627
body	-628
▁ele	-629
▁person	-630
right	-631
▁give	-632
▁might	-633
ities	-634
▁cent	-635
▁def	-636
ific	-637
▁eng	-638
ating	-639
▁sure	-640
▁fun	-641
ert	-642
ib	-643
als	-644
ics	-645
▁lear	-646
▁met	-647
▁high	-648
ible	-649
ied	-650
▁number	-651
ered	-652
▁didn	-653
▁trans	-654
▁seco	-655
▁prod	-656
arch	-657
▁acc	-658
▁vide	-659
▁made	-660
pect	-661
▁alright	-662
▁ty	-663
▁own	-664
ments	-665
ren	-666
▁count	-667
ought	-668
▁list	-669
ited	-670
▁ed	-671
ational	-672
▁yes	-673
▁ent	-674
▁always	-675
▁pol	-676
gan	-677
▁question	-678
▁el	-679
llow	-680
▁god	-681
▁gener	-682
▁important	-683
ute	-684
▁coll	-685
ix	-686
▁love	-687
▁data	-688
ility	-689
ably	-690
▁each	-691
▁dr	-692
▁called	-693
▁happen	-694
▁open	-695
▁sur	-696
▁commun	-697
▁run	-698
▁equ	-699
ss	-700
ism	-701
▁um	-702
▁ins	-703
erest	-704
▁word	-705
ven	-706
▁keep	-707
iew	-708
cus	-709
▁ass	-710
▁par	-711
▁prob	-712
ween	-713
lud	-714
▁cor	-715
▁between	-716
ract	-717
▁such	-718
▁yeaah	-719
▁interest	-720
▁exper	-721
▁second	-722
▁guys	-723
▁war	-724
oc	-725
hip	-726
▁both	-727
kes	-728
▁found	-729
▁never	-730
ize	-731
ings	-732
ps	-733
velop	-734
uring	-735
▁stu	-736
▁course	-737
▁state	-738
▁four	-739
▁cur	-740
ope	-741
▁able	-742
▁example	-743
▁wa	-744
▁cou	-745
▁val	-746
lo	-747
▁fam	-748
ution	-749
▁done	-750
▁char	-751
▁develop	-752
▁game	-753
▁col	-754
▁partic	-755
▁exp	-756
▁ref	-757
▁giv	-758
cept	-759
ug	-760
rib	-761
▁thought	-762
▁top	-763
▁pub	-764
▁ask	-765
▁che	-766
▁underst	-767
▁includ	-768
▁move	-769
▁better	-770
blem	-771
▁place	-772
▁probably	-773
▁using	-774
ell	-775
▁looking	-776
▁eff	-777
ention	-778
▁problem	-779
li	-780
▁plan	-781
lish	-782
▁gra	-783
ures	-784
▁build	-785
▁med	-786
▁video	-787
▁wee	-788
▁tech	-789
ood	-790
▁fact	-791
▁name	-792
▁lar	-793
ather	-794
▁eas	-795
ince	-796
▁power	-797
io	-798
▁while	-799
ool	-800
ric	-801
▁bus	-802
▁mem	-803
▁term	-804
cy	-805
land	-806
▁conf	-807
▁read	-808
its	-809
ead	-810
▁prov	-811
ense	-812
▁sort	-813
ull	-814
▁ca	-815
air	-816
▁book	-817
▁dist	-818
▁inform	-819
▁cle	-820
▁change	-821
▁doesn	-822
▁grou	-823
▁cre	-824
ember	-825
▁class	-826
ines	-827
▁far	-828
▁everything	-829
▁understand	-830
▁sign	-831
▁comple	-832
▁follow	-833
oy	-834
▁hard	-835
▁uni	-836
▁turn	-837
ost	-838
▁creat	-839
ized	-840
ouse	-841
ues	-842
▁belie	-843
erg	-844
▁art	-845
br	-846
▁getting	-847
ash	-848
▁old	-849
▁pret	-850
atter	-851
▁means	-852
ten	-853
▁hum	-854
▁care	-855
▁dire	-856
eric	-857
ness	-858
ird	-859
▁hand	-860
▁school	-861
ced	-862
▁pretty	-863
▁red	-864
▁trying	-865
vern	-866
▁process	-867
▁lea	-868
der	-869
ock	-870
▁head	-871
▁times	-872
▁few	-873
ason	-874
▁ple	-875
▁mark	-876
▁inf	-877
▁var	-878
▁sol	-879
▁water	-880
▁watch	-881
ger	-882
▁lead	-883
▁techn	-884
led	-885
▁aut	-886
▁talking	-887
▁sk	-888
▁small	-889
▁stuff	-890
ready	-891
▁best	-892
▁anything	-893
▁already	-894
▁loc	-895
▁x	-896
▁spec	-897
ta	-898
ne	-899
con	-900
▁home	-901
▁det	-902
▁govern	-903
ote	-904
ature	-905
▁once	-906
ode	-907
▁bre	-908
▁pass	-909
▁cause	-910
gram	-911
▁during	-912
ins	-913
iness	-914
▁main	-915
ology	-916
▁pop	-917
▁toget	-918
▁together	-919
▁level	-920
▁team	-921
▁working	-922
▁side	-923
▁contin	-924
ner	-925
bo	-926
ross	-927
▁sw	-928
▁left	-929
▁information	-930
▁program	-931
▁less	-932
▁support	-933
▁away	-934
oney	-935
▁sou	-936
ars	-937
▁frie	-938
▁product	-939
▁case	-940
▁ext	-941
▁project	-942
▁cam	-943
▁ret	-944
▁stand	-945
▁coming	-946
▁went	-947
▁expl	-948
▁learn	-949
▁mom	-950
bs	-951
▁sci	-952
▁having	-953
▁compan	-954
▁chr	-955
▁five	-956
▁americ	-957
alth	-958
▁adv	-959
▁whole	-960
▁bra	-961
▁saying	-962
▁questions	-963
ale	-964
az	-965
▁tri	-966
▁since	-967
▁came	-968
▁tea	-969
iting	-970
ices	-971
▁defin	-972
▁light	-973
ork	-974
ertain	-975
ages	-976
▁air	-977
▁remember	-978
▁poss	-979
nce	-980
▁child	-981
▁hope	-982
▁	-983
e	-984
t	-985
a	-986
o	-987
i	-988
n	-989
s	-990
r	-991
h	-992
l	-993
d	-994
u	-995
c	-996
m	-997
y	-998
g	-999
w	-1000
f	-1001
p	-1002
b	-1003
k	-1004
v	-1005
'	-1006
j	-1007
x	-1008
0	-1009
1	-1010
q	-1011
z	-1012
-	-1013
2	-1014
9	-1015
5	-1016
3	-1017
8	-1018
4	-1019
