<pad>	0
<unk>	0
<s>	0
</s>	0
▁t	-0
he	-1
▁a	-2
▁the	-3
in	-4
▁s	-5
▁w	-6
▁o	-7
re	-8
nd	-9
▁b	-10
▁h	-11
er	-12
▁m	-13
▁i	-14
ou	-15
▁c	-16
▁f	-17
at	-18
ed	-19
▁and	-20
en	-21
▁to	-22
▁of	-23
on	-24
is	-25
▁d	-26
ing	-27
▁th	-28
▁p	-29
▁he	-30
or	-31
▁l	-32
es	-33
▁in	-34
ll	-35
ar	-36
it	-37
as	-38
an	-39
▁n	-40
▁g	-41
om	-42
▁be	-43
▁ha	-44
▁e	-45
le	-46
ot	-47
▁y	-48
ut	-49
ow	-50
ic	-51
▁wh	-52
▁it	-53
ld	-54
▁that	-55
ve	-56
ly	-57
▁was	-58
se	-59
id	-60
st	-61
▁on	-62
gh	-63
ent	-64
▁re	-65
▁you	-66
im	-67
ce	-68
▁u	-69
ver	-70
ion	-71
▁as	-72
et	-73
▁for	-74
ay	-75
▁we	-76
▁his	-77
ith	-78
al	-79
ir	-80
▁r	-81
▁with	-82
▁st	-83
ad	-84
ur	-85
ght	-86
▁an	-87
▁her	-88
▁not	-89
▁had	-90
▁is	-91
ter	-92
her	-93
ac	-94
am	-95
▁at	-96
oo	-97
▁but	-98
ould	-99
▁she	-100
▁k	-101
▁se	-102
▁sa	-103
▁sh	-104
▁him	-105
▁fr	-106
▁so	-107
ill	-108
▁me	-109
ain	-110
▁su	-111
ight	-112
ch	-113
red	-114
ct	-115
all	-116
ro	-117
ke	-118
ess	-119
il	-120
ore	-121
▁they	-122
▁de	-123
▁my	-124
▁whe	-125
▁all	-126
ich	-127
ri	-128
▁ne	-129
▁by	-130
▁have	-131
ome	-132
pp	-133
▁this	-134
▁do	-135
▁li	-136
▁con	-137
us	-138
▁which	-139
▁ch	-140
qu	-141
ul	-142
▁j	-143
▁up	-144
▁said	-145
▁from	-146
ard	-147
ge	-148
▁or	-149
▁v	-150
▁one	-151
▁no	-152
th	-153
▁ex	-154
▁were	-155
▁there	-156
pe	-157
and	-158
est	-159
▁man	-160
ble	-161
▁who	-162
ant	-163
ie	-164
▁al	-165
res	-166
ous	-167
ust	-168
very	-169
ation	-170
▁fe	-171
▁them	-172
lf	-173
▁when	-174
nt	-175
ind	-176
ra	-177
ame	-178
▁go	-179
ers	-180
ast	-181
fe	-182
ood	-183
▁kn	-184
▁int	-185
ist	-186
▁are	-187
art	-188
out	-189
▁would	-190
▁le	-191
▁their	-192
▁what	-193
os	-194
ong	-195
our	-196
▁if	-197
ound	-198
▁com	-199
▁out	-200
▁ab	-201
▁wor	-202
em	-203
▁will	-204
ak	-205
▁mis	-206
ate	-207
ol	-208
um	-209
un	-210
itt	-211
ough	-212
ked	-213
ig	-214
ap	-215
one	-216
▁been	-217
own	-218
ive	-219
▁then	-220
▁br	-221
ven	-222
if	-223
▁ar	-224
self	-225
▁tr	-226
▁pl	-227
▁ro	-228
ther	-229
reat	-230
▁pr	-231
▁un	-232
▁af	-233
▁qu	-234
▁sp	-235
▁pro	-236
ity	-237
hed	-238
▁ag	-239
▁tw	-240
▁could	-241
ost	-242
ace	-243
ake	-244
ort	-245
ure	-246
ack	-247
▁am	-248
▁any	-249
▁some	-250
▁more	-251
▁your	-252
▁can	-253
au	-254
▁tim	-255
ep	-256
▁en	-257
ag	-258
ck	-259
▁cl	-260
▁into	-261
ry	-262
▁now	-263
hing	-264
are	-265
nder	-266
▁very	-267
▁gr	-268
el	-269
ose	-270
▁loo	-271
▁bo	-272
ved	-273
op	-274
▁did	-275
▁other	-276
▁than	-277
ance	-278
ittle	-279
▁little	-280
ies	-281
ine	-282
ite	-283
way	-284
▁like	-285
ide	-286
able	-287
ass	-288
▁bl	-289
urn	-290
ought	-291
▁lo	-292
▁know	-293
other	-294
▁im	-295
▁time	-296
▁dis	-297
fore	-298
▁us	-299
▁how	-300
▁co	-301
▁te	-302
ence	-303
▁ad	-304
▁day	-305
ade	-306
ice	-307
▁about	-308
▁see	-309
pt	-310
▁over	-311
▁too	-312
cc	-313
ink	-314
▁fl	-315
wn	-316
▁great	-317
pl	-318
▁after	-319
de	-320
▁per	-321
▁again	-322
▁hand	-323
ment	-324
▁upon	-325
ab	-326
ree	-327
ish	-328
▁has	-329
ci	-330
▁only	-331
ally	-332
▁should	-333
▁po	-334
▁well	-335
▁mar	-336
▁say	-337
ress	-338
▁good	-339
▁pe	-340
ather	-341
ings	-342
ount	-343
▁two	-344
▁our	-345
ire	-346
ving	-347
▁down	-348
ars	-349
ert	-350
▁before	-351
we	-352
▁app	-353
ves	-354
ile	-355
▁every	-356
▁its	-357
▁old	-358
▁thr	-359
▁mu	-360
▁made	-361
ick	-362
ied	-363
▁long	-364
te	-365
age	-366
ft	-367
▁where	-368
ang	-369
▁must	-370
▁never	-371
▁pre	-372
▁sm	-373
ions	-374
ful	-375
ull	-376
▁such	-377
▁str	-378
▁sc	-379
▁came	-380
ious	-381
▁off	-382
ue	-383
ward	-384
▁miss	-385
▁fir	-386
▁these	-387
ild	-388
▁even	-389
act	-390
▁under	-391
▁fo	-392
▁come	-393
▁part	-394
ness	-395
▁rem	-396
ated	-397
▁bec	-398
ord	-399
▁may	-400
ty	-401
▁much	-402
▁think	-403
▁way	-404
▁mister	-405
per	-406
led	-407
orn	-408
▁cont	-409
▁let	-410
▁ey	-411
▁gl	-412
▁thought	-413
▁look	-414
▁spe	-415
ect	-416
ise	-417
▁back	-418
▁bet	-419
ady	-420
▁ye	-421
ach	-422
▁here	-423
▁first	-424
▁just	-425
ans	-426
ren	-427
▁ho	-428
▁ob	-429
▁des	-430
▁own	-431
ud	-432
ried	-433
▁went	-434
ary	-435
▁mo	-436
▁himself	-437
air	-438
▁men	-439
cl	-440
ath	-441
ave	-442
ff	-443
▁sl	-444
llow	-445
co	-446
▁cr	-447
▁res	-448
▁might	-449
ily	-450
int	-451
ip	-452
▁seem	-453
▁beg	-454
ouse	-455
anc	-456
▁wat	-457
▁through	-458
▁comp	-459
ber	-460
▁car	-461
▁get	-462
▁away	-463
▁em	-464
▁imp	-465
▁head	-466
oss	-467
▁bel	-468
▁don	-469
▁pass	-470
▁without	-471
▁life	-472
ened	-473
▁make	-474
▁most	-475
▁cons	-476
▁som	-477
▁turn	-478
av	-479
ng	-480
▁shall	-481
▁pres	-482
▁those	-483
▁house	-484
▁eyes	-485
▁acc	-486
▁jo	-487
▁somet	-488
▁still	-489
hes	-490
ause	-491
▁night	-492
▁op	-493
less	-494
▁wom	-495
▁last	-496
▁call	-497
ks	-498
▁comm	-499
ared	-500
▁nothing	-501
▁tell	-502
▁new	-503
▁ent	-504
▁take	-505
ign	-506
▁being	-507
▁many	-508
▁found	-509
ons	-510
▁word	-511
▁ret	-512
▁att	-513
ase	-514
▁while	-515
▁ear	-516
ix	-517
▁saw	-518
ory	-519
▁peop	-520
▁put	-521
ne	-522
▁ser	-523
ark	-524
oth	-525
▁wr	-526
iend	-527
dy	-528
les	-529
▁once	-530
▁young	-531
▁la	-532
aking	-533
ens	-534
▁count	-535
▁people	-536
pect	-537
▁friend	-538
ors	-539
▁mat	-540
ered	-541
▁three	-542
ible	-543
▁room	-544
fect	-545
ince	-546
▁yet	-547
ail	-548
▁same	-549
▁right	-550
▁cour	-551
▁father	-552
igh	-553
▁another	-554
▁child	-555
▁place	-556
▁ind	-557
ult	-558
iv	-559
▁nor	-560
▁though	-561
▁want	-562
▁far	-563
▁king	-564
ition	-565
▁end	-566
▁face	-567
▁happ	-568
▁ever	-569
thing	-570
▁took	-571
ever	-572
get	-573
▁hu	-574
▁nat	-575
ew	-576
▁heart	-577
▁dist	-578
▁inst	-579
▁arm	-580
▁love	-581
ian	-582
man	-583
▁work	-584
▁light	-585
▁looked	-586
▁ac	-587
ict	-588
▁mind	-589
▁set	-590
▁char	-591
▁missus	-592
▁ple	-593
▁inte	-594
▁rep	-595
▁supp	-596
▁asked	-597
▁yes	-598
cess	-599
ently	-600
ertain	-601
▁left	-602
gg	-603
ub	-604
▁pers	-605
ished	-606
▁things	-607
▁sir	-608
alk	-609
▁ke	-610
▁mom	-611
▁wa	-612
sel	-613
▁moment	-614
irl	-615
ations	-616
ia	-617
rew	-618
▁sat	-619
ower	-620
ways	-621
▁find	-622
▁world	-623
vent	-624
ject	-625
▁gen	-626
▁gu	-627
▁give	-628
lt	-629
▁why	-630
so	-631
▁sw	-632
▁cap	-633
▁soon	-634
▁mother	-635
ling	-636
der	-637
▁ans	-638
pped	-639
▁act	-640
▁el	-641
▁heard	-642
dd	-643
▁form	-644
▁always	-645
▁thing	-646
▁door	-647
▁something	-648
ret	-649
▁seemed	-650
▁appe	-651
ange	-652
ither	-653
▁sub	-654
▁dif	-655
▁girl	-656
▁wind	-657
ced	-658
▁mon	-659
▁because	-660
ss	-661
▁home	-662
▁got	-663
▁war	-664
orm	-665
▁going	-666
▁told	-667
ained	-668
aught	-669
▁gi	-670
▁god	-671
▁eng	-672
▁sur	-673
ning	-674
land	-675
▁hands	-676
▁woman	-677
aut	-678
▁follow	-679
▁vo	-680
▁feel	-681
▁poss	-682
▁rel	-683
ched	-684
ph	-685
ple	-686
▁return	-687
ner	-688
ook	-689
▁knew	-690
▁rest	-691
▁boy	-692
▁each	-693
▁reg	-694
ical	-695
▁ma	-696
iver	-697
▁kind	-698
▁exp	-699
▁hel	-700
▁cle	-701
ual	-702
▁water	-703
▁sil	-704
▁oh	-705
ting	-706
▁bre	-707
▁del	-708
▁wo	-709
▁ass	-710
▁certain	-711
▁inf	-712
▁against	-713
cept	-714
▁conf	-715
▁hard	-716
▁belie	-717
ined	-718
row	-719
▁unt	-720
▁side	-721
▁years	-722
▁quite	-723
▁few	-724
▁hor	-725
iness	-726
▁four	-727
▁near	-728
▁ph	-729
ired	-730
▁done	-731
rest	-732
ters	-733
ier	-734
ool	-735
most	-736
ited	-737
▁che	-738
▁half	-739
▁better	-740
▁min	-741
▁tre	-742
ps	-743
ock	-744
oub	-745
uck	-746
▁also	-747
▁care	-748
▁began	-749
▁having	-750
ised	-751
ru	-752
▁lady	-753
▁enough	-754
▁gener	-755
ully	-756
▁dra	-757
▁seen	-758
▁pur	-759
aps	-760
▁hum	-761
aken	-762
ross	-763
ott	-764
▁inde	-765
ying	-766
▁beh	-767
▁ter	-768
ank	-769
▁hour	-770
ason	-771
▁does	-772
ial	-773
▁called	-774
▁morn	-775
▁ste	-776
▁ref	-777
▁whole	-778
ib	-779
ense	-780
▁pleas	-781
uth	-782
ream	-783
▁course	-784
▁gave	-785
▁cur	-786
▁turned	-787
gether	-788
▁occ	-789
▁sou	-790
selves	-791
een	-792
▁ins	-793
▁add	-794
ween	-795
▁read	-796
▁col	-797
▁both	-798
▁between	-799
▁inc	-800
▁among	-801
ular	-802
▁poor	-803
▁beaut	-804
ged	-805
▁sure	-806
▁morning	-807
▁keep	-808
▁repl	-809
▁white	-810
▁dear	-811
▁toward	-812
▁sk	-813
▁whom	-814
▁small	-815
▁however	-816
ute	-817
▁felt	-818
▁lar	-819
▁name	-820
▁six	-821
▁open	-822
ating	-823
bo	-824
osed	-825
▁myself	-826
aint	-827
▁bu	-828
ond	-829
▁hund	-830
▁inter	-831
▁wi	-832
▁hundred	-833
xt	-834
▁fore	-835
▁herself	-836
▁tra	-837
ction	-838
▁high	-839
▁stood	-840
▁show	-841
▁point	-842
▁sent	-843
▁ev	-844
▁days	-845
▁almost	-846
aster	-847
▁sim	-848
▁gra	-849
▁round	-850
ale	-851
▁eight	-852
vel	-853
▁words	-854
▁gre	-855
▁dr	-856
ents	-857
▁fam	-858
▁bus	-859
▁land	-860
ung	-861
dden	-862
ces	-863
ates	-864
▁stand	-865
haps	-866
▁mean	-867
iet	-868
▁perhaps	-869
▁ed	-870
ird	-871
▁sun	-872
▁replied	-873
ned	-874
▁since	-875
▁dark	-876
ures	-877
▁voice	-878
▁sle	-879
▁bar	-880
iss	-881
▁best	-882
▁sudden	-883
▁met	-884
▁anything	-885
▁till	-886
oud	-887
its	-888
▁until	-889
ins	-890
▁bro	-891
▁underst	-892
aring	-893
▁black	-894
▁cried	-895
▁fact	-896
▁looking	-897
▁lay	-898
amp	-899
▁power	-900
▁next	-901
▁prop	-902
▁prin	-903
up	-904
ately	-905
▁brought	-906
▁law	-907
▁quest	-908
rent	-909
als	-910
▁less	-911
▁country	-912
enty	-913
not	-914
▁help	-915
med	-916
▁adv	-917
▁person	-918
▁use	-919
▁sn	-920
▁need	-921
▁contin	-922
▁together	-923
▁vis	-924
▁air	-925
oney	-926
▁indeed	-927
▁spo	-928
▁par	-929
▁gent	-930
ured	-931
fully	-932
▁aw	-933
▁present	-934
ows	-935
▁unc	-936
▁ide	-937
▁full	-938
▁run	-939
▁rather	-940
▁feet	-941
▁five	-942
nded	-943
du	-944
tain	-945
be	-946
▁lat	-947
▁har	-948
▁sy	-949
▁mil	-950
▁cond	-951
cei	-952
eter	-953
▁doct	-954
▁fin	-955
▁fall	-956
▁interest	-957
▁bed	-958
▁wife	-959
▁matter	-960
oc	-961
▁lord	-962
▁gone	-963
▁es	-964
▁pat	-965
fort	-966
▁serv	-967
ressed	-968
▁adm	-969
ering	-970
oubt	-971
▁death	-972
▁hope	-973
▁art	-974
▁taken	-975
▁tri	-976
▁dire	-977
▁talk	-978
▁ext	-979
▁themselves	-980
ash	-981
ief	-982
▁others	-983
pr	-984
▁speak	-985
▁cannot	-986
uring	-987
ove	-988
▁cou	-989
▁lau	-990
▁bes	-991
▁along	-992
▁	-993
e	-994
t	-995
a	-996
o	-997
n	-998
i	-999
h	-1000
s	-1001
r	-1002
d	-1003
l	-1004
u	-1005
m	-1006
c	-1007
w	-1008
f	-1009
g	-1010
y	-1011
p	-1012
b	-1013
v	-1014
k	-1015
'	-1016
x	-1017
j	-1018
q	-1019
