<pad>	0
<unk>	0
<s>	0
</s>	0
▁t	-0
he	-1
▁a	-2
▁the	-3
in	-4
▁s	-5
▁w	-6
▁o	-7
re	-8
nd	-9
▁b	-10
▁h	-11
er	-12
▁m	-13
▁i	-14
ou	-15
▁c	-16
▁f	-17
at	-18
ed	-19
▁and	-20
en	-21
▁to	-22
▁of	-23
on	-24
is	-25
▁d	-26
ing	-27
▁th	-28
▁p	-29
▁he	-30
or	-31
▁l	-32
es	-33
▁in	-34
ar	-35
ll	-36
it	-37
as	-38
an	-39
▁n	-40
▁g	-41
om	-42
▁be	-43
▁ha	-44
▁e	-45
le	-46
ot	-47
▁y	-48
ut	-49
ow	-50
ic	-51
▁wh	-52
▁it	-53
ld	-54
ve	-55
▁that	-56
ly	-57
▁was	-58
se	-59
id	-60
st	-61
▁on	-62
gh	-63
ent	-64
▁re	-65
▁you	-66
im	-67
ce	-68
▁u	-69
ver	-70
ion	-71
▁as	-72
et	-73
▁for	-74
ay	-75
▁we	-76
▁his	-77
ith	-78
al	-79
ir	-80
▁r	-81
▁with	-82
▁st	-83
ad	-84
ur	-85
ght	-86
▁an	-87
▁her	-88
▁not	-89
▁had	-90
▁is	-91
ter	-92
her	-93
ac	-94
am	-95
▁at	-96
oo	-97
▁but	-98
ould	-99
▁she	-100
▁k	-101
▁se	-102
▁sa	-103
▁sh	-104
▁fr	-105
▁him	-106
▁so	-107
ill	-108
▁me	-109
ain	-110
▁su	-111
ight	-112
ch	-113
red	-114
ct	-115
all	-116
ro	-117
ke	-118
ess	-119
il	-120
ore	-121
▁they	-122
▁de	-123
▁my	-124
▁whe	-125
▁all	-126
ich	-127
▁ne	-128
ri	-129
▁by	-130
▁have	-131
ome	-132
pp	-133
▁this	-134
▁do	-135
▁li	-136
▁con	-137
us	-138
▁which	-139
▁ch	-140
qu	-141
ul	-142
▁j	-143
▁up	-144
▁said	-145
▁from	-146
ard	-147
ge	-148
▁or	-149
▁v	-150
▁one	-151
▁no	-152
th	-153
▁ex	-154
▁were	-155
▁there	-156
pe	-157
and	-158
est	-159
▁man	-160
ble	-161
▁who	-162
ant	-163
ie	-164
▁al	-165
res	-166
ous	-167
ust	-168
very	-169
ation	-170
▁fe	-171
▁them	-172
lf	-173
▁when	-174
nt	-175
ind	-176
ra	-177
ame	-178
▁go	-179
ers	-180
ast	-181
fe	-182
ood	-183
▁kn	-184
▁int	-185
ist	-186
▁are	-187
art	-188
out	-189
▁would	-190
▁le	-191
▁their	-192
ong	-193
▁what	-194
os	-195
our	-196
▁if	-197
ound	-198
▁com	-199
▁out	-200
▁ab	-201
em	-202
▁wor	-203
▁will	-204
ak	-205
▁mis	-206
ate	-207
ol	-208
um	-209
un	-210
itt	-211
ough	-212
ked	-213
ig	-214
ap	-215
one	-216
▁been	-217
own	-218
ive	-219
▁br	-220
▁then	-221
ven	-222
if	-223
▁tr	-224
▁ar	-225
self	-226
▁pl	-227
▁ro	-228
ther	-229
reat	-230
▁pr	-231
▁un	-232
▁af	-233
▁qu	-234
▁sp	-235
▁pro	-236
ity	-237
hed	-238
▁tw	-239
▁ag	-240
▁could	-241
ost	-242
ace	-243
ort	-244
ake	-245
▁am	-246
ure	-247
ack	-248
▁any	-249
▁some	-250
▁your	-251
▁more	-252
▁can	-253
au	-254
▁tim	-255
ep	-256
▁en	-257
ag	-258
ck	-259
▁cl	-260
▁into	-261
ry	-262
hing	-263
▁now	-264
are	-265
nder	-266
▁very	-267
▁gr	-268
el	-269
ose	-270
▁loo	-271
▁bo	-272
ved	-273
op	-274
▁did	-275
▁other	-276
▁than	-277
ance	-278
ittle	-279
▁little	-280
ies	-281
ine	-282
ite	-283
way	-284
▁like	-285
ide	-286
able	-287
ass	-288
▁bl	-289
ought	-290
urn	-291
▁lo	-292
other	-293
▁know	-294
▁dis	-295
▁time	-296
▁im	-297
▁us	-298
fore	-299
▁how	-300
▁co	-301
▁te	-302
ence	-303
▁ad	-304
▁day	-305
ade	-306
ice	-307
▁about	-308
▁see	-309
pt	-310
▁over	-311
▁too	-312
cc	-313
ink	-314
▁fl	-315
wn	-316
▁great	-317
▁after	-318
de	-319
pl	-320
▁per	-321
▁again	-322
▁hand	-323
ment	-324
▁upon	-325
ab	-326
ree	-327
▁has	-328
ish	-329
ci	-330
▁only	-331
ally	-332
▁should	-333
▁po	-334
▁well	-335
▁mar	-336
ress	-337
▁say	-338
▁good	-339
▁pe	-340
ount	-341
ather	-342
ings	-343
▁two	-344
▁our	-345
ire	-346
ving	-347
▁down	-348
ars	-349
ert	-350
we	-351
▁before	-352
▁app	-353
ves	-354
ile	-355
▁every	-356
▁its	-357
▁old	-358
▁thr	-359
▁mu	-360
▁made	-361
ick	-362
▁long	-363
ied	-364
te	-365
age	-366
ft	-367
▁where	-368
ang	-369
▁must	-370
▁never	-371
▁pre	-372
▁sm	-373
ful	-374
ions	-375
ull	-376
▁such	-377
▁str	-378
▁sc	-379
▁came	-380
ious	-381
▁off	-382
ue	-383
ward	-384
▁miss	-385
▁fir	-386
▁these	-387
ild	-388
▁even	-389
act	-390
▁under	-391
▁part	-392
▁fo	-393
▁come	-394
▁rem	-395
ness	-396
ated	-397
▁bec	-398
ord	-399
▁may	-400
▁much	-401
ty	-402
▁think	-403
▁way	-404
▁mister	-405
per	-406
led	-407
orn	-408
▁cont	-409
▁let	-410
▁ey	-411
▁gl	-412
▁thought	-413
▁look	-414
ect	-415
▁spe	-416
ise	-417
▁back	-418
▁bet	-419
ady	-420
▁ye	-421
ach	-422
▁first	-423
ans	-424
▁here	-425
▁just	-426
ren	-427
▁ho	-428
▁ob	-429
▁des	-430
ud	-431
▁own	-432
ried	-433
ary	-434
▁went	-435
▁mo	-436
▁himself	-437
air	-438
▁men	-439
cl	-440
ath	-441
ave	-442
ff	-443
▁sl	-444
co	-445
▁cr	-446
llow	-447
▁res	-448
▁might	-449
int	-450
ily	-451
ip	-452
▁seem	-453
▁beg	-454
anc	-455
ouse	-456
▁wat	-457
▁through	-458
▁comp	-459
ber	-460
▁car	-461
▁away	-462
▁get	-463
▁em	-464
▁imp	-465
▁head	-466
oss	-467
▁bel	-468
▁don	-469
▁life	-470
▁pass	-471
▁without	-472
ened	-473
▁most	-474
▁make	-475
▁cons	-476
▁som	-477
▁turn	-478
av	-479
ng	-480
▁shall	-481
▁those	-482
▁pres	-483
▁house	-484
▁eyes	-485
▁acc	-486
▁jo	-487
▁somet	-488
▁still	-489
ause	-490
▁night	-491
hes	-492
▁op	-493
▁call	-494
less	-495
▁last	-496
▁wom	-497
ks	-498
ared	-499
▁comm	-500
▁nothing	-501
▁new	-502
▁ent	-503
▁tell	-504
ign	-505
▁take	-506
▁being	-507
▁many	-508
▁found	-509
ons	-510
▁word	-511
▁ret	-512
ase	-513
▁att	-514
▁while	-515
▁ear	-516
ix	-517
▁saw	-518
ory	-519
▁peop	-520
▁put	-521
ark	-522
▁ser	-523
▁wr	-524
ne	-525
oth	-526
iend	-527
dy	-528
les	-529
▁once	-530
▁young	-531
▁count	-532
ens	-533
▁people	-534
▁la	-535
aking	-536
pect	-537
ors	-538
▁friend	-539
▁mat	-540
fect	-541
ible	-542
▁three	-543
ered	-544
▁room	-545
ince	-546
▁yet	-547
ail	-548
▁same	-549
▁cour	-550
▁father	-551
igh	-552
▁right	-553
▁child	-554
▁another	-555
▁ind	-556
▁place	-557
iv	-558
▁nor	-559
ult	-560
▁though	-561
▁far	-562
▁want	-563
ition	-564
▁king	-565
▁end	-566
▁face	-567
▁happ	-568
thing	-569
▁ever	-570
▁took	-571
ever	-572
get	-573
▁hu	-574
▁nat	-575
ew	-576
▁heart	-577
▁dist	-578
▁inst	-579
▁love	-580
▁arm	-581
ian	-582
man	-583
▁work	-584
▁light	-585
▁ac	-586
ict	-587
▁looked	-588
▁mind	-589
▁char	-590
▁missus	-591
▁set	-592
▁ple	-593
▁rep	-594
▁inte	-595
▁supp	-596
▁asked	-597
cess	-598
▁yes	-599
▁left	-600
ertain	-601
ub	-602
ently	-603
gg	-604
ished	-605
▁pers	-606
▁things	-607
▁sir	-608
▁ke	-609
alk	-610
▁wa	-611
ations	-612
▁mom	-613
irl	-614
sel	-615
▁moment	-616
ia	-617
ways	-618
ower	-619
▁sat	-620
rew	-621
▁find	-622
▁world	-623
ject	-624
vent	-625
▁give	-626
▁gen	-627
▁gu	-628
▁sw	-629
lt	-630
▁why	-631
▁soon	-632
▁cap	-633
ling	-634
▁ans	-635
▁mother	-636
der	-637
so	-638
pped	-639
▁heard	-640
dd	-641
▁el	-642
▁act	-643
▁form	-644
▁always	-645
▁thing	-646
▁something	-647
▁door	-648
ret	-649
▁appe	-650
▁seemed	-651
ange	-652
▁wind	-653
▁girl	-654
▁because	-655
ither	-656
▁sub	-657
▁mon	-658
ced	-659
▁dif	-660
ss	-661
▁home	-662
orm	-663
▁told	-664
▁going	-665
▁war	-666
▁got	-667
ained	-668
▁gi	-669
aught	-670
▁god	-671
▁eng	-672
▁sur	-673
land	-674
ning	-675
▁woman	-676
▁hands	-677
aut	-678
▁follow	-679
▁vo	-680
▁feel	-681
ched	-682
▁poss	-683
▁rel	-684
ph	-685
ple	-686
▁return	-687
▁rest	-688
▁knew	-689
▁reg	-690
ner	-691
ook	-692
▁boy	-693
▁each	-694
ical	-695
iver	-696
▁ma	-697
▁exp	-698
ual	-699
▁kind	-700
▁hel	-701
▁water	-702
▁cle	-703
▁oh	-704
▁sil	-705
ting	-706
▁ass	-707
▁bre	-708
▁del	-709
▁inf	-710
▁certain	-711
▁wo	-712
cept	-713
▁against	-714
▁conf	-715
▁hard	-716
ined	-717
▁belie	-718
▁unt	-719
row	-720
▁side	-721
▁quite	-722
▁years	-723
▁near	-724
▁few	-725
▁four	-726
iness	-727
▁ph	-728
▁hor	-729
ired	-730
▁done	-731
rest	-732
ier	-733
ool	-734
ited	-735
ters	-736
most	-737
▁half	-738
▁che	-739
▁better	-740
▁tre	-741
ps	-742
ock	-743
▁min	-744
uck	-745
oub	-746
▁began	-747
▁care	-748
▁having	-749
▁also	-750
ised	-751
▁lady	-752
ru	-753
▁enough	-754
ully	-755
▁gener	-756
▁dra	-757
▁seen	-758
▁pur	-759
▁hum	-760
aps	-761
ott	-762
aken	-763
ross	-764
▁inde	-765
ying	-766
▁beh	-767
▁ter	-768
ank	-769
ason	-770
▁hour	-771
▁called	-772
ial	-773
▁morn	-774
▁does	-775
▁whole	-776
▁ste	-777
▁ref	-778
ib	-779
ense	-780
▁pleas	-781
uth	-782
ream	-783
▁course	-784
▁turned	-785
gether	-786
selves	-787
▁cur	-788
▁sou	-789
▁occ	-790
een	-791
▁ins	-792
▁gave	-793
▁add	-794
▁col	-795
▁read	-796
ween	-797
▁both	-798
▁among	-799
▁between	-800
ular	-801
▁inc	-802
▁poor	-803
▁beaut	-804
▁sure	-805
ged	-806
▁dear	-807
▁keep	-808
▁morning	-809
▁white	-810
▁toward	-811
▁repl	-812
▁whom	-813
▁sk	-814
▁small	-815
▁however	-816
▁felt	-817
▁lar	-818
▁name	-819
ute	-820
▁open	-821
bo	-822
▁six	-823
ating	-824
ond	-825
osed	-826
▁bu	-827
▁myself	-828
xt	-829
aint	-830
▁inter	-831
▁fore	-832
▁wi	-833
▁hund	-834
▁hundred	-835
ction	-836
▁tra	-837
▁high	-838
▁herself	-839
▁stood	-840
▁show	-841
▁point	-842
▁days	-843
▁ev	-844
aster	-845
▁sim	-846
▁almost	-847
▁sent	-848
▁gra	-849
▁round	-850
vel	-851
▁eight	-852
ale	-853
▁gre	-854
▁dr	-855
▁words	-856
ents	-857
▁bus	-858
▁land	-859
ates	-860
ung	-861
dden	-862
▁stand	-863
▁fam	-864
ces	-865
haps	-866
▁mean	-867
iet	-868
▁ed	-869
▁perhaps	-870
▁sun	-871
ird	-872
▁since	-873
ned	-874
▁dark	-875
▁replied	-876
▁voice	-877
▁bar	-878
▁sle	-879
iss	-880
ures	-881
▁best	-882
▁met	-883
▁sudden	-884
▁anything	-885
▁till	-886
oud	-887
its	-888
ins	-889
▁until	-890
▁bro	-891
▁underst	-892
▁cried	-893
aring	-894
▁black	-895
▁fact	-896
▁looking	-897
▁lay	-898
▁next	-899
▁prop	-900
▁power	-901
up	-902
▁prin	-903
amp	-904
▁brought	-905
ately	-906
▁law	-907
als	-908
rent	-909
▁country	-910
▁quest	-911
enty	-912
▁help	-913
▁less	-914
med	-915
not	-916
▁adv	-917
▁person	-918
▁need	-919
▁use	-920
▁vis	-921
▁air	-922
▁together	-923
▁sn	-924
▁indeed	-925
▁contin	-926
oney	-927
ured	-928
▁par	-929
▁aw	-930
▁spo	-931
▁gent	-932
fully	-933
▁unc	-934
ows	-935
▁present	-936
▁ide	-937
▁full	-938
▁run	-939
▁rather	-940
▁five	-941
▁feet	-942
nded	-943
▁red	-944
tain	-945
▁har	-946
▁mil	-947
▁lat	-948
rib	-949
▁cond	-950
▁doct	-951
▁sy	-952
eter	-953
▁fin	-954
▁bed	-955
cei	-956
▁interest	-957
▁fall	-958
▁wife	-959
▁lord	-960
▁matter	-961
▁es	-962
oc	-963
▁gone	-964
fort	-965
▁pat	-966
▁serv	-967
ressed	-968
▁death	-969
▁adm	-970
ering	-971
oubt	-972
▁hope	-973
▁taken	-974
▁dire	-975
ash	-976
▁talk	-977
▁ext	-978
▁art	-979
▁themselves	-980
ief	-981
▁others	-982
pr	-983
▁lau	-984
▁speak	-985
▁cou	-986
ove	-987
▁cannot	-988
▁along	-989
uring	-990
▁bes	-991
app	-992
▁	-993
e	-994
t	-995
a	-996
o	-997
n	-998
i	-999
h	-1000
s	-1001
r	-1002
d	-1003
l	-1004
u	-1005
m	-1006
c	-1007
w	-1008
f	-1009
g	-1010
y	-1011
p	-1012
b	-1013
v	-1014
k	-1015
'	-1016
x	-1017
j	-1018
q	-1019
