<pad>	0
<unk>	0
<s>	0
</s>	0
▁t	-0
he	-1
▁a	-2
▁the	-3
in	-4
▁s	-5
▁w	-6
▁o	-7
re	-8
nd	-9
▁b	-10
▁h	-11
▁m	-12
▁i	-13
er	-14
ou	-15
▁c	-16
▁f	-17
ed	-18
at	-19
en	-20
▁to	-21
▁and	-22
▁of	-23
on	-24
▁d	-25
▁p	-26
▁th	-27
ing	-28
is	-29
▁he	-30
or	-31
▁l	-32
es	-33
an	-34
as	-35
ar	-36
▁in	-37
ll	-38
it	-39
▁n	-40
▁g	-41
om	-42
▁be	-43
▁ha	-44
▁e	-45
▁y	-46
le	-47
ot	-48
ow	-49
ut	-50
ic	-51
▁it	-52
ve	-53
▁wh	-54
▁was	-55
ld	-56
ly	-57
▁that	-58
id	-59
▁you	-60
st	-61
se	-62
▁on	-63
▁re	-64
gh	-65
ent	-66
im	-67
▁u	-68
ce	-69
▁we	-70
ion	-71
ay	-72
ver	-73
▁for	-74
al	-75
et	-76
▁r	-77
▁his	-78
▁as	-79
▁st	-80
ith	-81
ir	-82
▁with	-83
ur	-84
ad	-85
▁is	-86
ght	-87
▁an	-88
▁not	-89
▁had	-90
▁her	-91
ac	-92
▁at	-93
am	-94
her	-95
oo	-96
ould	-97
▁she	-98
▁but	-99
▁k	-100
▁se	-101
ter	-102
▁me	-103
▁fr	-104
▁sh	-105
ain	-106
ill	-107
▁sa	-108
▁him	-109
▁su	-110
ch	-111
▁so	-112
ight	-113
red	-114
all	-115
ro	-116
ke	-117
ct	-118
il	-119
▁de	-120
ess	-121
ore	-122
▁my	-123
▁have	-124
▁they	-125
▁all	-126
▁ne	-127
ri	-128
▁this	-129
▁j	-130
▁li	-131
▁whe	-132
ome	-133
▁do	-134
▁ch	-135
pe	-136
▁by	-137
▁con	-138
ich	-139
qu	-140
ge	-141
ul	-142
▁v	-143
▁up	-144
▁from	-145
ard	-146
▁said	-147
▁which	-148
th	-149
▁were	-150
▁no	-151
▁there	-152
▁'	-153
▁or	-154
us	-155
▁ex	-156
and	-157
ie	-158
est	-159
ant	-160
pp	-161
▁one	-162
▁man	-163
▁al	-164
ble	-165
ust	-166
res	-167
▁who	-168
▁go	-169
ation	-170
ous	-171
▁fe	-172
▁are	-173
▁kn	-174
ra	-175
very	-176
fe	-177
ers	-178
ame	-179
▁what	-180
ast	-181
lf	-182
ind	-183
un	-184
▁them	-185
art	-186
▁would	-187
ist	-188
em	-189
out	-190
▁int	-191
▁le	-192
os	-193
ood	-194
▁when	-195
▁wor	-196
▁ab	-197
our	-198
▁com	-199
ong	-200
▁out	-201
▁un	-202
▁if	-203
ol	-204
ound	-205
▁will	-206
ked	-207
▁their	-208
ate	-209
um	-210
ap	-211
ak	-212
▁been	-213
ig	-214
ough	-215
one	-216
▁tr	-217
itt	-218
▁pl	-219
own	-220
▁br	-221
▁ro	-222
▁ar	-223
▁then	-224
ive	-225
ven	-226
▁qu	-227
if	-228
▁sp	-229
▁af	-230
ther	-231
▁pro	-232
▁ag	-233
ack	-234
reat	-235
hed	-236
▁can	-237
self	-238
ost	-239
▁am	-240
ort	-241
▁your	-242
▁pr	-243
▁could	-244
▁en	-245
ace	-246
ake	-247
ity	-248
▁tim	-249
au	-250
▁any	-251
▁some	-252
▁more	-253
ep	-254
▁cl	-255
nt	-256
ry	-257
ure	-258
ck	-259
▁now	-260
el	-261
ag	-262
▁into	-263
▁did	-264
hing	-265
▁loo	-266
op	-267
▁tw	-268
▁gr	-269
▁know	-270
▁lo	-271
ved	-272
ine	-273
▁bo	-274
nder	-275
▁us	-276
are	-277
ance	-278
▁very	-279
ide	-280
▁like	-281
ies	-282
way	-283
▁other	-284
▁bl	-285
▁te	-286
urn	-287
ass	-288
▁how	-289
ose	-290
▁co	-291
▁time	-292
ice	-293
▁than	-294
▁about	-295
ite	-296
▁mr	-297
ittle	-298
▁see	-299
▁day	-300
ought	-301
▁little	-302
▁im	-303
fore	-304
▁dis	-305
able	-306
▁ad	-307
other	-308
ade	-309
ence	-310
ink	-311
▁has	-312
pt	-313
▁over	-314
▁again	-315
cc	-316
▁too	-317
ab	-318
▁after	-319
▁our	-320
ish	-321
pl	-322
ment	-323
▁fl	-324
wn	-325
ally	-326
▁hand	-327
▁only	-328
▁say	-329
de	-330
▁per	-331
▁great	-332
ci	-333
we	-334
▁po	-335
ars	-336
ings	-337
▁should	-338
▁upon	-339
▁well	-340
ire	-341
▁pe	-342
▁down	-343
ress	-344
▁good	-345
ree	-346
▁mar	-347
ather	-348
ile	-349
▁before	-350
ert	-351
▁thr	-352
ick	-353
ount	-354
ves	-355
▁two	-356
ied	-357
age	-358
▁made	-359
▁mu	-360
ving	-361
▁off	-362
ord	-363
▁its	-364
▁must	-365
▁long	-366
ft	-367
▁never	-368
ild	-369
▁sm	-370
▁sc	-371
ious	-372
▁str	-373
▁fir	-374
▁pre	-375
▁come	-376
▁every	-377
ue	-378
ull	-379
▁where	-380
ang	-381
ated	-382
▁old	-383
▁way	-384
▁think	-385
act	-386
▁ye	-387
▁rem	-388
ward	-389
ful	-390
▁came	-391
per	-392
▁may	-393
ions	-394
te	-395
▁these	-396
▁fo	-397
▁let	-398
▁even	-399
▁part	-400
▁under	-401
▁here	-402
ness	-403
▁back	-404
▁such	-405
▁gl	-406
led	-407
▁bet	-408
▁much	-409
▁look	-410
▁bec	-411
ud	-412
▁ey	-413
orn	-414
▁ho	-415
ren	-416
▁mo	-417
▁spe	-418
▁first	-419
ans	-420
ady	-421
▁just	-422
▁men	-423
ach	-424
ary	-425
ath	-426
ried	-427
ect	-428
ise	-429
▁thought	-430
▁cont	-431
▁des	-432
cl	-433
iss	-434
air	-435
▁ob	-436
ave	-437
ip	-438
▁own	-439
▁sl	-440
co	-441
▁seem	-442
▁cr	-443
llow	-444
ty	-445
▁res	-446
ber	-447
▁get	-448
▁don	-449
▁went	-450
ff	-451
▁himself	-452
ouse	-453
▁through	-454
▁life	-455
▁might	-456
ily	-457
▁jo	-458
▁wat	-459
▁comp	-460
oss	-461
▁beg	-462
anc	-463
▁bel	-464
▁imp	-465
av	-466
▁away	-467
▁car	-468
▁pass	-469
▁shall	-470
▁make	-471
▁turn	-472
ks	-473
▁new	-474
ted	-475
▁house	-476
ng	-477
▁call	-478
▁most	-479
ened	-480
▁head	-481
▁night	-482
▁ap	-483
▁pres	-484
iz	-485
▁cons	-486
▁eyes	-487
▁those	-488
▁som	-489
ared	-490
▁tell	-491
▁last	-492
ory	-493
▁acc	-494
▁wr	-495
▁still	-496
▁comm	-497
ign	-498
▁wom	-499
▁take	-500
ause	-501
ons	-502
▁somet	-503
▁op	-504
▁word	-505
▁many	-506
less	-507
▁em	-508
ase	-509
▁ent	-510
▁found	-511
▁without	-512
iv	-513
▁want	-514
▁nothing	-515
▁ret	-516
▁ser	-517
▁ear	-518
hes	-519
▁att	-520
▁god	-521
▁room	-522
iend	-523
oth	-524
ark	-525
▁right	-526
ew	-527
▁being	-528
▁cour	-529
▁while	-530
ople	-531
▁app	-532
▁friend	-533
▁mat	-534
▁work	-535
▁young	-536
dy	-537
man	-538
ail	-539
▁people	-540
▁la	-541
ered	-542
▁yet	-543
les	-544
pect	-545
▁once	-546
▁put	-547
ors	-548
▁saw	-549
▁place	-550
▁face	-551
ne	-552
▁why	-553
ens	-554
ian	-555
ible	-556
▁end	-557
aking	-558
▁ind	-559
▁ever	-560
▁far	-561
▁child	-562
ition	-563
igh	-564
▁heart	-565
▁char	-566
▁father	-567
ub	-568
▁another	-569
▁love	-570
fect	-571
▁nor	-572
thing	-573
▁ke	-574
▁count	-575
▁asked	-576
▁looked	-577
▁arm	-578
▁rep	-579
ia	-580
▁ac	-581
▁though	-582
▁same	-583
gg	-584
ult	-585
▁supp	-586
ever	-587
int	-588
▁light	-589
▁things	-590
get	-591
alk	-592
▁happ	-593
▁gen	-594
ict	-595
▁mind	-596
▁wa	-597
▁left	-598
▁dist	-599
▁mom	-600
▁inst	-601
so	-602
▁ans	-603
▁nat	-604
▁took	-605
▁eng	-606
▁gu	-607
ently	-608
▁moment	-609
▁ple	-610
▁miss	-611
ways	-612
▁set	-613
▁yes	-614
▁three	-615
▁war	-616
ained	-617
ince	-618
▁got	-619
ished	-620
▁thing	-621
▁find	-622
▁sw	-623
irl	-624
der	-625
▁going	-626
ange	-627
▁inte	-628
pped	-629
▁world	-630
▁give	-631
▁act	-632
ix	-633
dd	-634
ations	-635
▁gi	-636
▁always	-637
ss	-638
▁vo	-639
ertain	-640
▁seemed	-641
▁mother	-642
▁pers	-643
▁door	-644
▁sat	-645
▁mrs	-646
ting	-647
ced	-648
▁sur	-649
ject	-650
rew	-651
▁sir	-652
▁cap	-653
ower	-654
▁something	-655
▁dif	-656
▁el	-657
ret	-658
ph	-659
▁girl	-660
▁oh	-661
▁knew	-662
ling	-663
ical	-664
▁told	-665
▁appe	-666
▁rel	-667
orm	-668
▁home	-669
sel	-670
▁dr	-671
land	-672
▁sub	-673
▁ev	-674
▁unt	-675
▁follow	-676
▁heard	-677
▁form	-678
ook	-679
▁because	-680
ps	-681
ched	-682
▁mon	-683
▁poss	-684
▁years	-685
▁feel	-686
lt	-687
▁woman	-688
▁min	-689
▁soon	-690
ning	-691
▁few	-692
▁cle	-693
▁against	-694
▁return	-695
▁ph	-696
aught	-697
▁king	-698
▁sil	-699
ner	-700
▁bre	-701
▁boy	-702
▁hel	-703
▁wind	-704
▁hands	-705
▁wo	-706
ither	-707
cess	-708
▁belie	-709
▁kind	-710
▁reg	-711
▁also	-712
ters	-713
ool	-714
▁rest	-715
ple	-716
▁del	-717
▁conf	-718
▁bu	-719
ock	-720
▁each	-721
▁ma	-722
ired	-723
▁hard	-724
▁near	-725
▁exp	-726
▁done	-727
▁side	-728
▁inf	-729
most	-730
▁col	-731
▁gener	-732
ited	-733
ined	-734
▁quite	-735
▁ass	-736
▁che	-737
rest	-738
iver	-739
cept	-740
iness	-741
▁better	-742
▁half	-743
▁hour	-744
ank	-745
▁enough	-746
ual	-747
▁certain	-748
ial	-749
ised	-750
▁care	-751
ross	-752
▁ste	-753
ru	-754
▁course	-755
ier	-756
▁seen	-757
▁tre	-758
aut	-759
▁ter	-760
▁water	-761
ents	-762
oub	-763
ully	-764
aps	-765
▁lady	-766
▁ins	-767
uth	-768
▁turned	-769
▁keep	-770
▁sure	-771
aken	-772
▁does	-773
ib	-774
▁read	-775
▁sou	-776
row	-777
ween	-778
▁morn	-779
ying	-780
▁name	-781
▁hum	-782
▁between	-783
▁cur	-784
▁called	-785
▁hu	-786
xt	-787
▁lord	-788
▁hor	-789
▁both	-790
▁ref	-791
▁pur	-792
▁add	-793
ense	-794
▁occ	-795
▁pa	-796
▁dra	-797
▁began	-798
▁mean	-799
▁adv	-800
ten	-801
▁beh	-802
bo	-803
▁days	-804
▁show	-805
▁morning	-806
▁tra	-807
▁gave	-808
▁stand	-809
ction	-810
▁almost	-811
▁lar	-812
▁whole	-813
▁voice	-814
▁inde	-815
▁felt	-816
ason	-817
▁ed	-818
▁inter	-819
ged	-820
▁dear	-821
▁sent	-822
▁sk	-823
▁inc	-824
▁bar	-825
osed	-826
▁toward	-827
▁among	-828
▁white	-829
vel	-830
▁small	-831
ute	-832
▁however	-833
▁bus	-834
▁fore	-835
iet	-836
gether	-837
▁land	-838
▁poor	-839
ned	-840
▁open	-841
▁pleas	-842
ream	-843
ife	-844
uck	-845
▁words	-846
▁par	-847
▁having	-848
▁hear	-849
▁lat	-850
▁bro	-851
▁stood	-852
▁anything	-853
▁until	-854
ating	-855
▁dark	-856
▁met	-857
▁fam	-858
▁myself	-859
ates	-860
ular	-861
ond	-862
▁next	-863
dden	-864
▁since	-865
▁need	-866
ces	-867
▁high	-868
be	-869
▁cried	-870
ung	-871
its	-872
▁gre	-873
up	-874
haps	-875
▁sim	-876
▁quest	-877
ures	-878
▁fact	-879
aster	-880
ton	-881
▁whom	-882
▁best	-883
amp	-884
▁gra	-885
▁perhaps	-886
▁har	-887
▁repl	-888
▁four	-889
▁vis	-890
aint	-891
selves	-892
▁beaut	-893
▁round	-894
▁sudden	-895
▁fin	-896
▁lau	-897
▁brought	-898
▁sle	-899
▁underst	-900
ured	-901
▁spo	-902
▁inv	-903
▁es	-904
▁help	-905
▁less	-906
ention	-907
▁tri	-908
als	-909
▁country	-910
no	-911
▁aw	-912
ins	-913
ately	-914
▁herself	-915
not	-916
oney	-917
oud	-918
▁death	-919
▁talk	-920
▁use	-921
▁matter	-922
▁power	-923
▁det	-924
▁art	-925
▁rather	-926
ains	-927
▁looking	-928
fully	-929
tle	-930
med	-931
az	-932
▁sun	-933
rent	-934
▁present	-935
▁sn	-936
▁law	-937
▁black	-938
▁real	-939
▁point	-940
ows	-941
od	-942
▁sec	-943
▁air	-944
▁fire	-945
▁gone	-946
ird	-947
▁prop	-948
du	-949
▁taken	-950
▁pat	-951
▁replied	-952
▁doub	-953
ief	-954
▁play	-955
▁run	-956
▁pol	-957
▁full	-958
▁start	-959
▁cou	-960
▁gent	-961
▁ra	-962
▁bed	-963
wered	-964
wer	-965
▁thou	-966
▁serv	-967
uring	-968
▁till	-969
▁bur	-970
▁person	-971
▁interest	-972
▁contin	-973
▁fall	-974
▁lay	-975
ove	-976
ont	-977
▁chr	-978
ield	-979
▁wife	-980
og	-981
▁hope	-982
▁sy	-983
▁cond	-984
nded	-985
▁speak	-986
▁indeed	-987
▁	-988
e	-989
t	-990
a	-991
o	-992
n	-993
i	-994
h	-995
s	-996
r	-997
d	-998
l	-999
u	-1000
m	-1001
c	-1002
w	-1003
f	-1004
g	-1005
y	-1006
p	-1007
b	-1008
v	-1009
k	-1010
'	-1011
x	-1012
j	-1013
q	-1014
z	-1015
1	-1016
0	-1017
2	-1018
3	-1019
