<pad>	0
<unk>	0
<s>	0
</s>	0
▁t	-0
he	-1
▁a	-2
▁the	-3
in	-4
▁s	-5
▁w	-6
▁o	-7
re	-8
nd	-9
▁b	-10
▁h	-11
▁m	-12
er	-13
▁i	-14
ou	-15
▁c	-16
▁f	-17
at	-18
ed	-19
en	-20
▁of	-21
▁and	-22
on	-23
▁to	-24
▁d	-25
▁p	-26
▁th	-27
ing	-28
is	-29
or	-30
▁he	-31
▁l	-32
es	-33
▁in	-34
ar	-35
an	-36
as	-37
it	-38
ll	-39
▁n	-40
▁g	-41
om	-42
▁be	-43
▁ha	-44
▁e	-45
le	-46
▁y	-47
ot	-48
ic	-49
ow	-50
ut	-51
▁it	-52
▁wh	-53
ve	-54
▁that	-55
ld	-56
ly	-57
▁was	-58
st	-59
se	-60
id	-61
▁on	-62
▁re	-63
▁you	-64
gh	-65
ent	-66
im	-67
▁u	-68
ce	-69
ion	-70
al	-71
▁we	-72
ver	-73
▁for	-74
ay	-75
▁as	-76
et	-77
▁r	-78
▁his	-79
ith	-80
▁st	-81
ir	-82
▁with	-83
ur	-84
ad	-85
▁is	-86
ght	-87
▁an	-88
▁not	-89
▁had	-90
ac	-91
▁her	-92
am	-93
▁at	-94
her	-95
oo	-96
ould	-97
▁but	-98
▁k	-99
▁she	-100
▁se	-101
ter	-102
▁fr	-103
ain	-104
▁sh	-105
▁me	-106
ill	-107
▁su	-108
ch	-109
▁him	-110
▁sa	-111
▁so	-112
ight	-113
red	-114
ro	-115
ct	-116
all	-117
il	-118
▁de	-119
ke	-120
ess	-121
ore	-122
▁my	-123
▁have	-124
▁they	-125
▁all	-126
ri	-127
▁whe	-128
▁ne	-129
▁by	-130
▁li	-131
▁j	-132
ich	-133
ome	-134
▁this	-135
▁ch	-136
pe	-137
▁con	-138
▁do	-139
qu	-140
ul	-141
▁v	-142
ge	-143
▁which	-144
▁from	-145
▁up	-146
ard	-147
▁or	-148
th	-149
▁were	-150
us	-151
▁ex	-152
and	-153
est	-154
▁no	-155
▁there	-156
ie	-157
▁'	-158
ant	-159
▁said	-160
pp	-161
▁one	-162
▁man	-163
▁al	-164
ble	-165
res	-166
▁who	-167
ation	-168
ust	-169
ous	-170
▁go	-171
▁fe	-172
ers	-173
fe	-174
ra	-175
▁are	-176
very	-177
▁kn	-178
ast	-179
lf	-180
ame	-181
ind	-182
nt	-183
▁them	-184
art	-185
ist	-186
em	-187
▁would	-188
os	-189
▁int	-190
ong	-191
▁when	-192
▁le	-193
out	-194
▁what	-195
▁com	-196
ood	-197
our	-198
▁wor	-199
▁ab	-200
ol	-201
▁if	-202
▁out	-203
▁their	-204
ound	-205
ate	-206
um	-207
ak	-208
▁will	-209
un	-210
ap	-211
ig	-212
ough	-213
one	-214
▁been	-215
ked	-216
▁tr	-217
itt	-218
▁pl	-219
own	-220
▁ar	-221
▁br	-222
ive	-223
▁ro	-224
ven	-225
if	-226
▁sp	-227
▁pro	-228
▁qu	-229
▁un	-230
ther	-231
reat	-232
▁af	-233
▁then	-234
ost	-235
▁ag	-236
self	-237
ack	-238
hed	-239
ity	-240
ort	-241
▁en	-242
▁am	-243
▁pr	-244
▁can	-245
ace	-246
au	-247
▁could	-248
ake	-249
▁your	-250
▁tim	-251
▁some	-252
ure	-253
▁cl	-254
▁any	-255
▁more	-256
ep	-257
ry	-258
ck	-259
ag	-260
el	-261
▁into	-262
▁now	-263
op	-264
▁tw	-265
hing	-266
▁gr	-267
ose	-268
ine	-269
nder	-270
ies	-271
ved	-272
ance	-273
▁loo	-274
▁did	-275
▁bo	-276
are	-277
▁know	-278
▁other	-279
ide	-280
▁us	-281
ass	-282
▁lo	-283
▁bl	-284
▁like	-285
▁very	-286
▁co	-287
way	-288
▁than	-289
ice	-290
▁te	-291
▁time	-292
▁im	-293
urn	-294
ite	-295
▁dis	-296
ence	-297
▁about	-298
▁mr	-299
▁how	-300
ittle	-301
able	-302
▁ad	-303
▁little	-304
ought	-305
▁day	-306
ade	-307
fore	-308
▁see	-309
pt	-310
cc	-311
other	-312
▁over	-313
ab	-314
▁has	-315
ink	-316
ment	-317
ish	-318
▁fl	-319
wn	-320
▁again	-321
▁after	-322
▁our	-323
ally	-324
ci	-325
▁too	-326
pl	-327
▁per	-328
▁great	-329
▁only	-330
de	-331
▁hand	-332
ars	-333
ings	-334
▁po	-335
▁say	-336
▁upon	-337
we	-338
▁pe	-339
▁should	-340
ire	-341
ress	-342
▁down	-343
ree	-344
ile	-345
▁well	-346
▁mar	-347
ert	-348
▁good	-349
ather	-350
▁thr	-351
ves	-352
ount	-353
▁before	-354
ving	-355
age	-356
▁its	-357
ick	-358
▁two	-359
▁made	-360
▁mu	-361
ord	-362
ied	-363
▁off	-364
ious	-365
▁long	-366
▁sc	-367
▁pre	-368
ild	-369
ue	-370
▁where	-371
▁str	-372
ated	-373
▁every	-374
ft	-375
ions	-376
▁fir	-377
act	-378
ang	-379
▁sm	-380
▁must	-381
ull	-382
▁never	-383
▁old	-384
per	-385
ful	-386
▁ye	-387
▁way	-388
▁may	-389
▁come	-390
▁rem	-391
ward	-392
▁such	-393
▁part	-394
ness	-395
▁under	-396
▁these	-397
▁fo	-398
▁even	-399
▁think	-400
te	-401
▁came	-402
▁gl	-403
▁bec	-404
led	-405
ud	-406
ren	-407
▁bet	-408
▁let	-409
▁back	-410
▁much	-411
▁ey	-412
orn	-413
ans	-414
▁mo	-415
▁ho	-416
▁here	-417
▁look	-418
ary	-419
ect	-420
▁spe	-421
▁first	-422
ath	-423
ach	-424
▁cont	-425
▁men	-426
ise	-427
ady	-428
▁just	-429
▁des	-430
▁thought	-431
▁ob	-432
▁own	-433
ried	-434
cl	-435
ip	-436
air	-437
▁cr	-438
iss	-439
co	-440
▁sl	-441
▁res	-442
ave	-443
▁seem	-444
llow	-445
ty	-446
ber	-447
ff	-448
▁himself	-449
▁through	-450
▁life	-451
ouse	-452
▁might	-453
▁get	-454
▁comp	-455
ily	-456
▁went	-457
▁don	-458
oss	-459
▁jo	-460
anc	-461
▁wat	-462
▁imp	-463
av	-464
▁pass	-465
▁bel	-466
▁beg	-467
▁car	-468
ks	-469
▁make	-470
▁new	-471
▁most	-472
▁those	-473
▁cons	-474
▁away	-475
iz	-476
▁shall	-477
▁pres	-478
▁call	-479
▁turn	-480
int	-481
▁house	-482
▁ap	-483
▁acc	-484
▁comm	-485
ory	-486
▁head	-487
ign	-488
ened	-489
▁eyes	-490
▁som	-491
ons	-492
▁night	-493
ause	-494
▁wr	-495
▁last	-496
▁still	-497
ared	-498
iv	-499
▁em	-500
less	-501
▁wom	-502
▁many	-503
▁tell	-504
▁somet	-505
▁op	-506
▁take	-507
▁word	-508
▁ent	-509
ase	-510
▁without	-511
hes	-512
▁ser	-513
▁found	-514
▁ear	-515
ng	-516
▁being	-517
▁att	-518
▁while	-519
▁ret	-520
oth	-521
ark	-522
iend	-523
▁app	-524
▁nothing	-525
ople	-526
▁want	-527
▁la	-528
les	-529
▁god	-530
▁cour	-531
▁young	-532
ew	-533
▁mat	-534
ail	-535
▁right	-536
▁friend	-537
ens	-538
▁room	-539
dy	-540
▁people	-541
▁work	-542
ors	-543
man	-544
▁yet	-545
pect	-546
ian	-547
ered	-548
ition	-549
ult	-550
ict	-551
▁ind	-552
▁put	-553
▁place	-554
▁once	-555
igh	-556
▁char	-557
▁end	-558
aking	-559
ible	-560
▁far	-561
▁ever	-562
▁saw	-563
▁face	-564
▁child	-565
fect	-566
ub	-567
▁heart	-568
▁nor	-569
▁love	-570
▁count	-571
▁though	-572
ia	-573
▁arm	-574
▁father	-575
▁ac	-576
▁same	-577
▁another	-578
▁rep	-579
▁gen	-580
▁ke	-581
▁supp	-582
gg	-583
▁light	-584
▁nat	-585
get	-586
thing	-587
▁why	-588
▁things	-589
▁dist	-590
ever	-591
▁mind	-592
▁eng	-593
▁inst	-594
▁looked	-595
▁happ	-596
ince	-597
so	-598
▁set	-599
alk	-600
ations	-601
▁gu	-602
▁ple	-603
ained	-604
▁war	-605
ways	-606
ently	-607
ished	-608
▁left	-609
▁wa	-610
▁three	-611
der	-612
▁act	-613
▁mom	-614
▁world	-615
▁inte	-616
▁took	-617
▁moment	-618
▁asked	-619
▁sw	-620
▁find	-621
▁miss	-622
ix	-623
ange	-624
▁pers	-625
▁gi	-626
▁thing	-627
irl	-628
ject	-629
ical	-630
lt	-631
ower	-632
ertain	-633
▁got	-634
▁give	-635
ss	-636
▁always	-637
▁ans	-638
ret	-639
ced	-640
▁sub	-641
▁rel	-642
pped	-643
▁going	-644
▁form	-645
▁cap	-646
▁vo	-647
sel	-648
▁mrs	-649
land	-650
▁sur	-651
▁mother	-652
orm	-653
▁seemed	-654
dd	-655
▁dif	-656
▁sat	-657
ne	-658
ling	-659
▁appe	-660
▁hu	-661
ph	-662
▁because	-663
▁dr	-664
▁yes	-665
▁el	-666
▁ev	-667
▁something	-668
▁door	-669
rew	-670
▁mon	-671
ps	-672
▁unt	-673
▁girl	-674
▁poss	-675
▁years	-676
▁follow	-677
▁home	-678
▁knew	-679
▁king	-680
▁told	-681
▁feel	-682
▁against	-683
ook	-684
▁sir	-685
▁heard	-686
ched	-687
ning	-688
▁ph	-689
cess	-690
▁min	-691
▁woman	-692
aught	-693
▁cle	-694
▁bre	-695
aint	-696
ither	-697
ner	-698
▁reg	-699
▁inf	-700
▁wind	-701
▁oh	-702
▁soon	-703
▁sil	-704
ple	-705
▁hands	-706
▁few	-707
ters	-708
▁exp	-709
▁del	-710
▁kind	-711
▁conf	-712
▁gener	-713
▁ma	-714
▁bu	-715
▁return	-716
▁each	-717
▁rest	-718
ual	-719
▁hel	-720
▁belie	-721
iver	-722
ool	-723
ited	-724
ial	-725
▁wo	-726
▁boy	-727
▁also	-728
▁ass	-729
cept	-730
▁col	-731
ined	-732
▁side	-733
most	-734
rest	-735
ock	-736
ired	-737
▁near	-738
▁hard	-739
ents	-740
▁che	-741
▁certain	-742
iness	-743
▁half	-744
aut	-745
▁done	-746
ru	-747
▁ter	-748
ank	-749
ised	-750
ier	-751
▁quite	-752
▁tre	-753
▁hour	-754
ross	-755
▁care	-756
▁sou	-757
▁enough	-758
ib	-759
uth	-760
oub	-761
▁ste	-762
▁seen	-763
▁water	-764
▁better	-765
▁hum	-766
ween	-767
▁ins	-768
ott	-769
▁between	-770
▁course	-771
▁lady	-772
ows	-773
aken	-774
aps	-775
ully	-776
ying	-777
▁read	-778
▁cur	-779
▁keep	-780
▁name	-781
▁pur	-782
▁called	-783
ting	-784
▁ref	-785
ense	-786
▁occ	-787
▁does	-788
▁sure	-789
▁turned	-790
▁adv	-791
▁both	-792
▁dra	-793
▁add	-794
▁hor	-795
▁morn	-796
xt	-797
▁lord	-798
▁beh	-799
ction	-800
▁whole	-801
▁days	-802
▁sk	-803
▁stand	-804
bo	-805
▁inc	-806
▁among	-807
▁ed	-808
ason	-809
▁point	-810
▁pa	-811
▁lar	-812
▁inter	-813
▁tra	-814
▁white	-815
osed	-816
▁gave	-817
▁almost	-818
▁inde	-819
vel	-820
▁land	-821
▁began	-822
▁mean	-823
ged	-824
▁sent	-825
▁fore	-826
▁having	-827
ute	-828
▁bar	-829
▁small	-830
owed	-831
gether	-832
ates	-833
▁morning	-834
▁felt	-835
ream	-836
▁pleas	-837
ces	-838
▁par	-839
▁voice	-840
ating	-841
iet	-842
ular	-843
▁toward	-844
▁fam	-845
▁poor	-846
▁whom	-847
its	-848
▁high	-849
ures	-850
▁words	-851
▁bus	-852
▁since	-853
ned	-854
ife	-855
▁open	-856
ond	-857
▁gre	-858
▁bro	-859
▁dear	-860
▁dark	-861
selves	-862
▁however	-863
be	-864
▁until	-865
▁lat	-866
▁met	-867
▁fact	-868
uck	-869
▁sim	-870
▁hear	-871
▁beaut	-872
up	-873
▁myself	-874
▁stood	-875
aster	-876
ung	-877
▁best	-878
▁round	-879
▁vis	-880
dden	-881
▁four	-882
haps	-883
▁need	-884
▁anything	-885
▁gra	-886
▁inv	-887
▁next	-888
▁perhaps	-889
▁less	-890
amp	-891
ins	-892
als	-893
▁har	-894
row	-895
▁es	-896
▁quest	-897
ention	-898
▁brought	-899
▁country	-900
ured	-901
▁art	-902
▁sle	-903
▁tri	-904
▁power	-905
▁fin	-906
▁sudden	-907
▁underst	-908
oud	-909
ains	-910
▁death	-911
▁herself	-912
od	-913
▁cried	-914
ont	-915
▁sun	-916
ately	-917
▁law	-918
▁aw	-919
▁spo	-920
▁present	-921
▁use	-922
rent	-923
▁det	-924
▁lau	-925
du	-926
not	-927
med	-928
▁prop	-929
▁help	-930
az	-931
▁real	-932
▁sn	-933
oney	-934
▁black	-935
▁rather	-936
▁sec	-937
▁looking	-938
▁matter	-939
▁talk	-940
fully	-941
▁pat	-942
▁repl	-943
oy	-944
ird	-945
og	-946
▁till	-947
▁person	-948
▁cou	-949
▁air	-950
ove	-951
▁swe	-952
▁cond	-953
oubt	-954
▁play	-955
▁taken	-956
▁thou	-957
▁full	-958
▁pol	-959
ief	-960
▁gent	-961
▁fire	-962
uring	-963
ield	-964
▁fall	-965
▁ra	-966
▁serv	-967
▁sy	-968
ton	-969
nded	-970
▁run	-971
▁interest	-972
▁bur	-973
▁gone	-974
▁contin	-975
▁adm	-976
▁bed	-977
ering	-978
▁ide	-979
▁lay	-980
▁wife	-981
ably	-982
▁mil	-983
▁rec	-984
cei	-985
▁thus	-986
ene	-987
▁together	-988
▁along	-989
▁ext	-990
▁chr	-991
▁	-992
e	-993
t	-994
a	-995
o	-996
n	-997
i	-998
h	-999
s	-1000
r	-1001
d	-1002
l	-1003
u	-1004
m	-1005
c	-1006
w	-1007
f	-1008
g	-1009
y	-1010
p	-1011
b	-1012
v	-1013
k	-1014
'	-1015
x	-1016
j	-1017
q	-1018
z	-1019
