<pad>	0
<unk>	0
<s>	0
</s>	0
▁t	-0
▁th	-1
▁a	-2
in	-3
re	-4
▁the	-5
▁w	-6
▁o	-7
▁s	-8
at	-9
er	-10
ou	-11
nd	-12
it	-13
▁c	-14
is	-15
on	-16
▁b	-17
ing	-18
▁h	-19
en	-20
▁to	-21
▁m	-22
▁f	-23
an	-24
es	-25
▁p	-26
or	-27
▁I	-28
▁d	-29
al	-30
▁of	-31
▁l	-32
ed	-33
▁y	-34
▁in	-35
▁and	-36
ar	-37
▁you	-38
▁g	-39
om	-40
as	-41
▁that	-42
ic	-43
▁u	-44
ll	-45
ve	-46
▁n	-47
ow	-48
ion	-49
le	-50
et	-51
st	-52
▁A	-53
ly	-54
▁is	-55
▁it	-56
▁e	-57
▁we	-58
▁T	-59
▁wh	-60
ut	-61
ot	-62
▁be	-63
▁re	-64
▁S	-65
se	-66
ay	-67
▁on	-68
ent	-69
ct	-70
▁Th	-71
▁ha	-72
ke	-73
ig	-74
id	-75
ver	-76
ro	-77
▁for	-78
im	-79
ch	-80
▁st	-81
ere	-82
▁this	-83
ld	-84
am	-85
▁k	-86
ur	-87
▁li	-88
ce	-89
▁W	-90
ith	-91
▁go	-92
▁uh	-93
▁And	-94
if	-95
ation	-96
ad	-97
ir	-98
▁an	-99
▁have	-100
th	-101
▁with	-102
▁as	-103
▁was	-104
ht	-105
▁do	-106
▁are	-107
▁B	-108
ally	-109
ust	-110
▁So	-111
▁r	-112
▁se	-113
▁like	-114
▁C	-115
▁so	-116
od	-117
▁j	-118
▁kn	-119
ight	-120
▁can	-121
▁he	-122
op	-123
▁know	-124
▁The	-125
▁or	-126
ome	-127
ol	-128
ill	-129
▁M	-130
ant	-131
▁U	-132
ck	-133
il	-134
▁me	-135
▁not	-136
ter	-137
▁at	-138
▁sh	-139
▁ab	-140
▁H	-141
▁Y	-142
ra	-143
▁ne	-144
ul	-145
ers	-146
▁they	-147
▁con	-148
ge	-149
ate	-150
ould	-151
ore	-152
▁de	-153
▁pro	-154
out	-155
▁O	-156
▁just	-157
▁com	-158
▁fr	-159
▁al	-160
qu	-161
pp	-162
▁ex	-163
est	-164
▁what	-165
us	-166
ess	-167
▁P	-168
▁ch	-169
▁but	-170
▁N	-171
▁su	-172
▁lo	-173
▁there	-174
ist	-175
art	-176
pe	-177
▁all	-178
ain	-179
au	-180
▁your	-181
▁v	-182
ab	-183
very	-184
ive	-185
um	-186
▁L	-187
nt	-188
▁about	-189
▁wor	-190
▁one	-191
ok	-192
▁D	-193
▁from	-194
ri	-195
un	-196
ity	-197
ea	-198
ort	-199
ink	-200
em	-201
▁Uh	-202
▁It	-203
▁if	-204
ind	-205
▁my	-206
▁G	-207
el	-208
▁get	-209
▁R	-210
all	-211
ment	-212
▁out	-213
▁F	-214
ause	-215
▁by	-216
os	-217
and	-218
rou	-219
res	-220
▁up	-221
▁E	-222
▁some	-223
▁You	-224
▁int	-225
▁us	-226
▁We	-227
▁pl	-228
ie	-229
▁don	-230
ich	-231
ake	-232
ies	-233
▁bec	-234
▁think	-235
ack	-236
▁here	-237
ard	-238
ear	-239
▁going	-240
ect	-241
ame	-242
ak	-243
ide	-244
▁tr	-245
her	-246
▁tim	-247
ast	-248
▁Wh	-249
▁thing	-250
ure	-251
▁then	-252
our	-253
ci	-254
▁J	-255
▁will	-256
ud	-257
eop	-258
▁want	-259
eople	-260
iv	-261
so	-262
▁see	-263
gh	-264
▁co	-265
ine	-266
▁more	-267
▁which	-268
▁people	-269
▁uhm	-270
▁our	-271
ose	-272
▁right	-273
▁really	-274
▁them	-275
▁because	-276
▁when	-277
▁would	-278
▁say	-279
▁qu	-280
ther	-281
are	-282
ions	-283
pt	-284
▁how	-285
per	-286
▁mo	-287
▁were	-288
▁time	-289
▁who	-290
▁cl	-291
▁act	-292
▁work	-293
one	-294
▁has	-295
ong	-296
▁had	-297
iz	-298
▁te	-299
ans	-300
▁look	-301
▁im	-302
ag	-303
▁also	-304
▁en	-305
ous	-306
▁But	-307
..	-308
ff	-309
ber	-310
ple	-311
age	-312
▁these	-313
▁In	-314
▁now	-315
▁man	-316
▁le	-317
act	-318
ice	-319
hing	-320
▁very	-321
pl	-322
▁their	-323
na	-324
itt	-325
▁any	-326
▁sa	-327
▁fe	-328
ven	-329
▁ag	-330
omet	-331
reat	-332
▁That	-333
▁ad	-334
ite	-335
▁Uhm	-336
▁other	-337
▁into	-338
og	-339
ually	-340
▁cont	-341
▁part	-342
▁way	-343
▁need	-344
ish	-345
ree	-346
▁got	-347
alk	-348
▁been	-349
▁tw	-350
iff	-351
▁over	-352
ry	-353
own	-354
ue	-355
▁his	-356
kay	-357
ick	-358
ire	-359
ace	-360
irst	-361
▁did	-362
▁every	-363
▁where	-364
ap	-365
ep	-366
ach	-367
cc	-368
▁back	-369
▁somet	-370
▁This	-371
▁He	-372
▁po	-373
▁diff	-374
ble	-375
ated	-376
▁no	-377
nder	-378
ical	-379
ass	-380
ip	-381
▁sp	-382
▁two	-383
▁than	-384
▁kind	-385
ult	-386
ase	-387
orm	-388
ia	-389
ence	-390
▁first	-391
way	-392
ations	-393
▁K	-394
▁pr	-395
▁pre	-396
▁year	-397
▁things	-398
▁res	-399
▁spe	-400
able	-401
▁gu	-402
▁could	-403
▁un	-404
▁lot	-405
onna	-406
ary	-407
▁comp	-408
▁gonna	-409
ac	-410
▁make	-411
▁good	-412
int	-413
vel	-414
▁off	-415
ang	-416
▁app	-417
ance	-418
▁well	-419
▁those	-420
▁differe	-421
be	-422
▁talk	-423
▁Ch	-424
▁let	-425
▁ar	-426
▁something	-427
ign	-428
ittle	-429
▁use	-430
▁fo	-431
▁dis	-432
uct	-433
▁comm	-434
▁start	-435
▁actually	-436
uch	-437
▁little	-438
▁imp	-439
▁inc	-440
xt	-441
ount	-442
ress	-443
ound	-444
ens	-445
▁They	-446
rough	-447
ys	-448
▁bo	-449
ving	-450
eah	-451
round	-452
▁may	-453
▁bet	-454
▁per	-455
▁much	-456
▁ro	-457
ory	-458
▁new	-459
co	-460
ord	-461
ning	-462
ial	-463
▁through	-464
▁bu	-465
▁down	-466
▁call	-467
ition	-468
ater	-469
▁different	-470
▁again	-471
sel	-472
lo	-473
▁St	-474
ents	-475
▁Okay	-476
vers	-477
ile	-478
ian	-479
▁her	-480
▁V	-481
▁does	-482
▁am	-483
▁she	-484
▁If	-485
▁even	-486
▁only	-487
▁under	-488
▁take	-489
▁mean	-490
ub	-491
▁sc	-492
▁said	-493
ild	-494
av	-495
▁him	-496
form	-497
ody	-498
ark	-499
ough	-500
▁What	-501
▁happ	-502
other	-503
ting	-504
...	-505
ade	-506
▁There	-507
▁day	-508
fter	-509
ors	-510
ail	-511
he	-512
▁sy	-513
ght	-514
ces	-515
▁Al	-516
fore	-517
ah	-518
ious	-519
▁most	-520
ank	-521
fe	-522
▁many	-523
ph	-524
▁put	-525
erm	-526
▁quest	-527
▁should	-528
thing	-529
▁being	-530
ject	-531
▁try	-532
▁hel	-533
▁des	-534
▁rec	-535
ft	-536
▁Now	-537
▁ke	-538
red	-539
▁inter	-540
ically	-541
▁play	-542
ates	-543
▁ph	-544
▁Yeah	-545
▁ser	-546
ons	-547
ual	-548
ved	-549
▁doing	-550
day	-551
aking	-552
▁em	-553
▁str	-554
we	-555
▁bas	-556
▁br	-557
▁bit	-558
▁help	-559
▁show	-560
▁wr	-561
ict	-562
wn	-563
▁pers	-564
▁gr	-565
▁fu	-566
ne	-567
▁rem	-568
igh	-569
▁acc	-570
▁point	-571
▁great	-572
ath	-573
▁ind	-574
▁tra	-575
▁add	-576
▁same	-577
▁rel	-578
oth	-579
ction	-580
▁stud	-581
▁num	-582
ec	-583
get	-584
▁feel	-585
ty	-586
ange	-587
self	-588
▁come	-589
▁end	-590
les	-591
▁cons	-592
▁three	-593
olog	-594
bs	-595
▁years	-596
▁around	-597
atch	-598
▁after	-599
ful	-600
stem	-601
▁still	-602
ost	-603
▁before	-604
iss	-605
▁its	-606
▁min	-607
cial	-608
ower	-609
ular	-610
▁pos	-611
urn	-612
te	-613
▁supp	-614
uc	-615
▁find	-616
▁set	-617
gr	-618
ves	-619
▁dat	-620
▁Oh	-621
▁long	-622
ative	-623
mer	-624
▁gen	-625
▁sm	-626
ib	-627
▁dec	-628
▁As	-629
▁exam	-630
ike	-631
lic	-632
ities	-633
▁bl	-634
ily	-635
ew	-636
▁fl	-637
▁cour	-638
nds	-639
ways	-640
ific	-641
▁world	-642
ward	-643
ng	-644
▁real	-645
▁big	-646
ady	-647
cess	-648
ating	-649
▁inst	-650
arch	-651
▁next	-652
▁mod	-653
▁too	-654
ise	-655
body	-656
▁import	-657
ics	-658
▁system	-659
▁might	-660
ert	-661
▁inv	-662
▁person	-663
▁ev	-664
▁used	-665
▁sl	-666
▁reg	-667
▁vide	-668
als	-669
▁Un	-670
▁bel	-671
pect	-672
▁ac	-673
ible	-674
▁why	-675
ments	-676
ational	-677
▁prod	-678
▁att	-679
ell	-680
▁rep	-681
▁fun	-682
▁life	-683
▁op	-684
▁last	-685
lect	-686
▁sim	-687
▁lear	-688
▁give	-689
▁Well	-690
▁def	-691
▁another	-692
▁How	-693
ited	-694
▁own	-695
▁form	-696
▁jo	-697
▁ear	-698
▁No	-699
▁tell	-700
ered	-701
▁Is	-702
ied	-703
lud	-704
ility	-705
▁high	-706
gan	-707
▁id	-708
▁didn	-709
▁data	-710
ix	-711
▁sure	-712
▁cr	-713
▁An	-714
▁trans	-715
▁made	-716
▁always	-717
▁important	-718
▁ask	-719
ably	-720
ought	-721
▁number	-722
ism	-723
▁met	-724
ween	-725
▁fin	-726
ract	-727
▁today	-728
ute	-729
▁happen	-730
oc	-731
erest	-732
▁ent	-733
ings	-734
▁ty	-735
▁mon	-736
▁such	-737
iew	-738
▁called	-739
▁car	-740
velop	-741
▁run	-742
▁exper	-743
▁between	-744
▁able	-745
▁sch	-746
ks	-747
▁Let	-748
right	-749
▁seco	-750
hip	-751
▁For	-752
▁course	-753
aw	-754
▁stu	-755
▁commun	-756
▁pres	-757
▁ob	-758
oy	-759
cus	-760
▁–	-761
akes	-762
▁count	-763
▁equ	-764
▁guys	-765
▁interest	-766
ize	-767
▁example	-768
uring	-769
ss	-770
ug	-771
ese	-772
▁love	-773
▁ins	-774
▁includ	-775
▁maybe	-776
ution	-777
▁prob	-778
▁gener	-779
▁cent	-780
▁question	-781
▁sort	-782
▁each	-783
▁partic	-784
old	-785
rib	-786
▁ass	-787
▁word	-788
▁Like	-789
ool	-790
▁list	-791
▁val	-792
▁sub	-793
▁pol	-794
▁sur	-795
▁okay	-796
▁develop	-797
▁done	-798
▁open	-799
cept	-800
▁keep	-801
▁coll	-802
ric	-803
stand	-804
▁game	-805
ope	-806
ures	-807
lish	-808
▁video	-809
ention	-810
tern	-811
▁um	-812
nce	-813
llow	-814
ull	-815
▁using	-816
blem	-817
▁fact	-818
ont	-819
io	-820
▁eff	-821
ood	-822
▁When	-823
▁giv	-824
▁exp	-825
▁top	-826
▁wee	-827
ense	-828
▁better	-829
▁build	-830
▁problem	-831
ier	-832
▁both	-833
▁fam	-834
▁ref	-835
roup	-836
▁four	-837
ars	-838
its	-839
cy	-840
▁looking	-841
any	-842
▁second	-843
▁place	-844
▁term	-845
ever	-846
▁found	-847
ized	-848
chn	-849
▁To	-850
▁move	-851
▁thought	-852
▁cur	-853
▁never	-854
▁state	-855
ee	-856
▁Bec	-857
ather	-858
▁prov	-859
ash	-860
ince	-861
vern	-862
▁understand	-863
▁ed	-864
ember	-865
▁probably	-866
▁pub	-867
ork	-868
▁el	-869
▁stuff	-870
▁Because	-871
▁bus	-872
▁read	-873
▁cou	-874
▁means	-875
land	-876
air	-877
▁lar	-878
erg	-879
formation	-880
ues	-881
▁doesn	-882
▁creat	-883
▁change	-884
▁name	-885
ren	-886
▁power	-887
▁getting	-888
up	-889
eaah	-890
ason	-891
▁comple	-892
▁process	-893
▁cor	-894
▁sign	-895
▁mem	-896
ook	-897
tty	-898
ced	-899
▁class	-900
der	-901
▁trying	-902
ave	-903
ode	-904
▁talking	-905
▁plan	-906
▁group	-907
▁book	-908
▁cre	-909
▁dist	-910
iness	-911
▁hard	-912
ouse	-913
▁belie	-914
▁Sh	-915
ness	-916
az	-917
ote	-918
ready	-919
▁eas	-920
ivers	-921
▁Or	-922
gram	-923
▁everything	-924
▁conf	-925
▁spec	-926
▁already	-927
ology	-928
ird	-929
ten	-930
led	-931
▁few	-932
▁var	-933
▁Thank	-934
▁care	-935
▁lead	-936
amp	-937
ond	-938
▁inf	-939
▁dr	-940
gin	-941
▁char	-942
ature	-943
▁level	-944
▁hand	-945
▁times	-946
▁pretty	-947
▁mark	-948
▁small	-949
▁She	-950
▁dire	-951
oney	-952
▁product	-953
end	-954
▁Alright	-955
▁follow	-956
▁while	-957
▁cle	-958
▁team	-959
▁home	-960
▁support	-961
meric	-962
▁Re	-963
▁best	-964
▁turn	-965
▁far	-966
▁med	-967
ices	-968
▁che	-969
▁working	-970
ross	-971
▁techn	-972
ax	-973
▁toget	-974
▁together	-975
▁govern	-976
▁God	-977
▁hum	-978
▁Br	-979
▁aut	-980
alth	-981
▁watch	-982
▁saying	-983
ertain	-984
▁case	-985
▁art	-986
▁head	-987
▁whole	-988
▁side	-989
br	-990
ages	-991
omm	-992
imes	-993
▁sol	-994
▁loc	-995
▁col	-996
ner	-997
▁ext	-998
▁program	-999
▁old	-1000
▁Americ	-1001
▁less	-1002
▁pass	-1003
▁Fr	-1004
▁gra	-1005
▁information	-1006
▁main	-1007
▁coming	-1008
▁Do	-1009
ists	-1010
▁anything	-1011
▁learn	-1012
ience	-1013
▁having	-1014
▁pop	-1015
▁det	-1016
▁contin	-1017
iting	-1018
▁water	-1019
ets	-1020
vious	-1021
▁z	-1022
▁All	-1023
ger	-1024
▁went	-1025
▁away	-1026
▁expl	-1027
▁school	-1028
ield	-1029
ern	-1030
▁opp	-1031
▁project	-1032
▁red	-1033
▁started	-1034
▁stand	-1035
▁poss	-1036
▁contro	-1037
▁money	-1038
▁defin	-1039
▁left	-1040
lease	-1041
▁ret	-1042
▁sk	-1043
▁came	-1044
reen	-1045
▁lea	-1046
ale	-1047
str	-1048
ows	-1049
ins	-1050
▁organ	-1051
each	-1052
▁sit	-1053
bers	-1054
▁frie	-1055
▁One	-1056
▁five	-1057
ural	-1058
ames	-1059
atter	-1060
▁adv	-1061
cri	-1062
ime	-1063
▁Ar	-1064
nect	-1065
▁De	-1066
▁idea	-1067
▁bre	-1068
▁mom	-1069
▁hu	-1070
▁wanted	-1071
▁questions	-1072
▁making	-1073
aj	-1074
rop	-1075
▁chang	-1076
ta	-1077
▁Chr	-1078
▁says	-1079
ital	-1080
ines	-1081
▁test	-1082
▁business	-1083
▁requ	-1084
▁Ind	-1085
osed	-1086
sw	-1087
ision	-1088
con	-1089
▁tri	-1090
▁Just	-1091
ants	-1092
ization	-1093
ident	-1094
▁Right	-1095
▁light	-1096
▁design	-1097
atever	-1098
ared	-1099
▁child	-1100
▁serv	-1101
▁though	-1102
▁particular	-1103
ts	-1104
▁during	-1105
ately	-1106
▁else	-1107
iter	-1108
▁New	-1109
ety	-1110
ral	-1111
▁Jo	-1112
▁resp	-1113
▁My	-1114
▁iss	-1115
▁On	-1116
▁Sp	-1117
▁elect	-1118
▁Then	-1119
line	-1120
▁later	-1121
▁rese	-1122
▁beh	-1123
▁Eng	-1124
▁certain	-1125
▁week	-1126
▁free	-1127
ton	-1128
row	-1129
ient	-1130
▁month	-1131
▁war	-1132
▁mind	-1133
▁hope	-1134
wh	-1135
ene	-1136
▁conc	-1137
▁eng	-1138
▁answ	-1139
▁Can	-1140
▁teach	-1141
▁At	-1142
▁space	-1143
iver	-1144
angu	-1145
▁check	-1146
▁once	-1147
▁av	-1148
▁order	-1149
▁comes	-1150
illion	-1151
ether	-1152
▁sci	-1153
gest	-1154
▁someone	-1155
▁enough	-1156
▁Z	-1157
▁stre	-1158
▁seen	-1159
▁wom	-1160
▁cap	-1161
▁full	-1162
▁within	-1163
▁dra	-1164
▁hist	-1165
▁remember	-1166
pend	-1167
ased	-1168
▁students	-1169
▁hear	-1170
▁pri	-1171
▁May	-1172
▁research	-1173
▁result	-1174
▁ca	-1175
▁blo	-1176
▁connect	-1177
▁basically	-1178
▁line	-1179
▁Go	-1180
▁yeaah	-1181
man	-1182
▁government	-1183
▁public	-1184
ption	-1185
▁prot	-1186
▁often	-1187
▁direct	-1188
▁whatever	-1189
ump	-1190
att	-1191
▁unt	-1192
▁quick	-1193
ock	-1194
▁sing	-1195
alf	-1196
▁area	-1197
▁pract	-1198
ush	-1199
▁ever	-1200
uck	-1201
▁effect	-1202
rent	-1203
ator	-1204
outh	-1205
▁model	-1206
ergy	-1207
▁bad	-1208
▁es	-1209
▁langu	-1210
▁without	-1211
ided	-1212
▁since	-1213
▁Not	-1214
ware	-1215
▁against	-1216
▁pay	-1217
▁community	-1218
▁incre	-1219
▁bring	-1220
▁ele	-1221
ither	-1222
▁Yes	-1223
▁create	-1224
ann	-1225
▁present	-1226
▁bra	-1227
▁stop	-1228
▁quite	-1229
ides	-1230
ering	-1231
ining	-1232
▁oh	-1233
==	-1234
▁est	-1235
▁Q	-1236
▁live	-1237
▁yeah	-1238
view	-1239
pr	-1240
ury	-1241
▁Se	-1242
▁land	-1243
▁air	-1244
▁These	-1245
ters	-1246
▁seem	-1247
▁consid	-1248
▁nice	-1249
▁type	-1250
▁dem	-1251
ortun	-1252
▁goes	-1253
▁human	-1254
▁appro	-1255
ired	-1256
▁sw	-1257
ases	-1258
▁miss	-1259
▁health	-1260
▁oper	-1261
▁wa	-1262
eng	-1263
▁sec	-1264
▁pur	-1265
▁grow	-1266
▁focus	-1267
▁==	-1268
less	-1269
▁cond	-1270
uro	-1271
▁interesting	-1272
▁exc	-1273
work	-1274
▁begin	-1275
iversity	-1276
ined	-1277
▁believe	-1278
▁Christ	-1279
▁story	-1280
iron	-1281
▁reason	-1282
most	-1283
▁large	-1284
▁family	-1285
▁hour	-1286
▁cho	-1287
▁vis	-1288
▁Some	-1289
▁everyone	-1290
▁ve	-1291
▁value	-1292
cially	-1293
▁thank	-1294
▁least	-1295
▁par	-1296
▁mult	-1297
▁typ	-1298
▁bro	-1299
▁rest	-1300
err	-1301
▁house	-1302
▁fil	-1303
▁until	-1304
▁must	-1305
▁view	-1306
itch	-1307
rod	-1308
▁prof	-1309
▁vers	-1310
▁law	-1311
▁makes	-1312
▁cause	-1313
ify	-1314
▁saw	-1315
▁meet	-1316
▁Be	-1317
▁control	-1318
▁access	-1319
ott	-1320
▁body	-1321
▁intern	-1322
▁guess	-1323
ik	-1324
side	-1325
▁took	-1326
ccess	-1327
▁function	-1328
▁step	-1329
▁pat	-1330
orn	-1331
▁works	-1332
com	-1333
▁days	-1334
▁sound	-1335
▁known	-1336
▁experience	-1337
▁energy	-1338
ality	-1339
▁trad	-1340
ries	-1341
erv	-1342
ids	-1343
idd	-1344
▁thinking	-1345
▁couple	-1346
▁become	-1347
▁terms	-1348
▁vari	-1349
▁food	-1350
▁past	-1351
▁sense	-1352
▁looks	-1353
ead	-1354
▁sometimes	-1355
ium	-1356
▁yourself	-1357
▁half	-1358
▁city	-1359
▁gl	-1360
▁country	-1361
▁leg	-1362
ards	-1363
ians	-1364
ling	-1365
ency	-1366
utes	-1367
wards	-1368
ially	-1369
▁social	-1370
▁market	-1371
▁United	-1372
▁job	-1373
hn	-1374
▁early	-1375
▁guy	-1376
ob	-1377
▁$	-1378
ional	-1379
itive	-1380
▁walk	-1381
▁based	-1382
▁Pro	-1383
▁With	-1384
conom	-1385
ajor	-1386
▁cool	-1387
▁tool	-1388
▁link	-1389
▁post	-1390
▁clear	-1391
▁current	-1392
orth	-1393
ulation	-1394
ove	-1395
▁close	-1396
▁allow	-1397
ives	-1398
ories	-1399
▁pick	-1400
▁field	-1401
▁along	-1402
▁listen	-1403
▁exact	-1404
ina	-1405
▁super	-1406
▁matter	-1407
▁proper	-1408
pecially	-1409
▁complete	-1410
med	-1411
ery	-1412
▁click	-1413
▁room	-1414
ane	-1415
▁moment	-1416
▁tem	-1417
▁Um	-1418
▁x	-1419
head	-1420
ilar	-1421
come	-1422
▁hold	-1423
ats	-1424
▁share	-1425
aster	-1426
ex	-1427
▁ways	-1428
▁fig	-1429
▁mil	-1430
viously	-1431
ains	-1432
igin	-1433
cuss	-1434
aces	-1435
selves	-1436
▁either	-1437
▁Cl	-1438
▁record	-1439
▁short	-1440
▁text	-1441
▁deal	-1442
▁words	-1443
ability	-1444
▁dep	-1445
▁key	-1446
▁success	-1447
▁across	-1448
▁squ	-1449
▁mention	-1450
▁almost	-1451
▁Tr	-1452
▁night	-1453
▁yes	-1454
▁object	-1455
▁del	-1456
▁invest	-1457
▁cra	-1458
▁won	-1459
▁win	-1460
▁aff	-1461
▁prom	-1462
▁nothing	-1463
▁whether	-1464
ret	-1465
atic	-1466
ero	-1467
▁learning	-1468
▁charact	-1469
▁common	-1470
▁kill	-1471
▁fore	-1472
▁single	-1473
▁hy	-1474
itical	-1475
▁pa	-1476
▁major	-1477
▁div	-1478
▁discuss	-1479
▁cult	-1480
ateg	-1481
▁answer	-1482
arent	-1483
ots	-1484
▁taking	-1485
▁everybody	-1486
itely	-1487
▁company	-1488
▁possible	-1489
▁Ex	-1490
ron	-1491
bo	-1492
▁buy	-1493
▁pie	-1494
par	-1495
▁non	-1496
uce	-1497
viron	-1498
▁econom	-1499
▁sour	-1500
uction	-1501
▁six	-1502
▁Euro	-1503
▁report	-1504
▁language	-1505
▁net	-1506
▁fuck	-1507
▁Mar	-1508
▁stay	-1509
ude	-1510
▁fut	-1511
▁mus	-1512
▁English	-1513
lf	-1514
▁event	-1515
▁break	-1516
▁occ	-1517
iqu	-1518
▁dev	-1519
▁million	-1520
ently	-1521
where	-1522
oun	-1523
▁Ph	-1524
▁speak	-1525
▁true	-1526
ples	-1527
▁origin	-1528
rem	-1529
▁expect	-1530
▁press	-1531
ule	-1532
nding	-1533
▁given	-1534
▁phys	-1535
ified	-1536
ipp	-1537
▁ey	-1538
itions	-1539
▁mor	-1540
▁Con	-1541
▁abs	-1542
aut	-1543
ully	-1544
▁mess	-1545
▁fre	-1546
▁activ	-1547
▁Here	-1548
▁Which	-1549
▁Am	-1550
▁plus	-1551
▁situ	-1552
▁code	-1553
▁ago	-1554
▁Ad	-1555
▁By	-1556
iod	-1557
▁gotta	-1558
▁neg	-1559
▁Co	-1560
▁educ	-1561
▁inside	-1562
▁strong	-1563
▁Europe	-1564
▁rece	-1565
anna	-1566
▁Why	-1567
▁cost	-1568
▁especially	-1569
▁comput	-1570
▁yet	-1571
▁future	-1572
thers	-1573
ument	-1574
▁Don	-1575
▁ident	-1576
app	-1577
▁including	-1578
▁relations	-1579
▁avail	-1580
ior	-1581
▁Pr	-1582
▁wasn	-1583
▁somebody	-1584
▁pot	-1585
▁study	-1586
▁building	-1587
▁collect	-1588
eg	-1589
▁easy	-1590
▁low	-1591
ivid	-1592
irc	-1593
port	-1594
▁special	-1595
ted	-1596
▁men	-1597
▁wo	-1598
ov	-1599
▁chall	-1600
ustom	-1601
▁American	-1602
hod	-1603
▁anal	-1604
▁environ	-1605
▁John	-1606
▁States	-1607
▁const	-1608
▁hit	-1609
▁sent	-1610
▁told	-1611
▁please	-1612
urch	-1613
ctor	-1614
▁mar	-1615
▁di	-1616
▁needs	-1617
els	-1618
▁gets	-1619
▁et	-1620
▁repres	-1621
▁similar	-1622
▁tot	-1623
fully	-1624
▁invol	-1625
raph	-1626
▁general	-1627
ained	-1628
▁auth	-1629
orry	-1630
▁lim	-1631
▁Pl	-1632
▁cal	-1633
▁ann	-1634
▁ep	-1635
ape	-1636
ilt	-1637
▁opportun	-1638
▁multi	-1639
▁young	-1640
▁became	-1641
put	-1642
ential	-1643
▁write	-1644
▁women	-1645
itional	-1646
aught	-1647
▁near	-1648
ext	-1649
icult	-1650
▁definitely	-1651
▁front	-1652
eral	-1653
ploy	-1654
▁happened	-1655
▁ide	-1656
▁usually	-1657
ucture	-1658
▁friends	-1659
▁Every	-1660
▁mag	-1661
ences	-1662
▁norm	-1663
▁third	-1664
aps	-1665
aterial	-1666
▁available	-1667
ination	-1668
▁liter	-1669
▁happens	-1670
mm	-1671
▁individ	-1672
▁minutes	-1673
▁sever	-1674
▁forward	-1675
▁black	-1676
▁fac	-1677
▁others	-1678
▁perform	-1679
arm	-1680
▁fight	-1681
▁reach	-1682
▁custom	-1683
ised	-1684
▁However	-1685
rew	-1686
▁ahead	-1687
▁Comm	-1688
▁anim	-1689
▁entire	-1690
▁vol	-1691
▁Where	-1692
fect	-1693
unch	-1694
▁indust	-1695
▁lau	-1696
▁heard	-1697
▁exactly	-1698
▁history	-1699
▁myself	-1700
▁exist	-1701
▁children	-1702
aken	-1703
▁X	-1704
▁specific	-1705
▁several	-1706
ister	-1707
▁amount	-1708
▁arm	-1709
▁applic	-1710
olute	-1711
▁Com	-1712
lished	-1713
▁pict	-1714
▁US	-1715
▁account	-1716
▁lab	-1717
▁Germ	-1718
▁wrong	-1719
▁period	-1720
▁face	-1721
▁material	-1722
▁convers	-1723
▁protect	-1724
▁content	-1725
▁pain	-1726
oud	-1727
▁ones	-1728
▁figure	-1729
▁engine	-1730
▁fall	-1731
▁camp	-1732
por	-1733
▁local	-1734
▁isn	-1735
▁leave	-1736
ai	-1737
▁Ag	-1738
▁Mr	-1739
▁method	-1740
▁individual	-1741
not	-1742
▁ra	-1743
▁cut	-1744
▁resour	-1745
▁simple	-1746
imate	-1747
▁service	-1748
sh	-1749
▁wanna	-1750
uced	-1751
▁lay	-1752
▁outside	-1753
▁relationship	-1754
▁hon	-1755
lu	-1756
▁circ	-1757
▁environment	-1758
▁attack	-1759
▁ver	-1760
era	-1761
▁development	-1762
▁page	-1763
▁difficult	-1764
▁wind	-1765
▁sug	-1766
▁Tw	-1767
ried	-1768
▁ris	-1769
▁After	-1770
▁members	-1771
▁itself	-1772
asure	-1773
▁subs	-1774
use	-1775
▁offic	-1776
▁enc	-1777
▁Wor	-1778
▁fur	-1779
ration	-1780
▁Maybe	-1781
▁century	-1782
▁running	-1783
ube	-1784
▁comb	-1785
cast	-1786
▁prop	-1787
▁asked	-1788
▁Su	-1789
▁webs	-1790
▁impro	-1791
▁pull	-1792
▁happy	-1793
▁return	-1794
▁Car	-1795
▁block	-1796
ream	-1797
▁rad	-1798
▁watching	-1799
joy	-1800
▁technology	-1801
ife	-1802
aring	-1803
▁introd	-1804
▁log	-1805
▁behind	-1806
▁dig	-1807
ged	-1808
▁bar	-1809
▁self	-1810
▁sal	-1811
to	-1812
▁heart	-1813
uss	-1814
▁created	-1815
▁cell	-1816
iddle	-1817
ones	-1818
▁fav	-1819
▁mot	-1820
oss	-1821
▁instead	-1822
▁opt	-1823
▁beaut	-1824
▁wonder	-1825
▁nat	-1826
itting	-1827
erence	-1828
▁equal	-1829
▁chann	-1830
▁online	-1831
▁dri	-1832
▁represent	-1833
▁position	-1834
▁mass	-1835
▁cop	-1836
ensive	-1837
▁haven	-1838
▁Af	-1839
▁init	-1840
▁character	-1841
oint	-1842
nch	-1843
ental	-1844
▁approach	-1845
▁months	-1846
▁news	-1847
▁talked	-1848
▁takes	-1849
▁"	-1850
▁looked	-1851
ledge	-1852
▁polic	-1853
▁ess	-1854
▁systems	-1855
▁white	-1856
read	-1857
▁soon	-1858
▁Brit	-1859
▁corre	-1860
▁ground	-1861
▁ready	-1862
by	-1863
▁enjoy	-1864
▁aud	-1865
olution	-1866
mb	-1867
though	-1868
soci	-1869
▁mentioned	-1870
▁include	-1871
▁Are	-1872
ission	-1873
irl	-1874
idence	-1875
▁Any	-1876
igher	-1877
omes	-1878
▁stra	-1879
▁search	-1880
ording	-1881
▁treat	-1882
▁rather	-1883
min	-1884
book	-1885
▁box	-1886
ived	-1887
ler	-1888
▁Who	-1889
▁friend	-1890
▁port	-1891
▁War	-1892
▁University	-1893
ills	-1894
ony	-1895
▁priv	-1896
bal	-1897
ru	-1898
▁hours	-1899
▁necess	-1900
ored	-1901
▁bott	-1902
▁seeing	-1903
▁soft	-1904
istic	-1905
aim	-1906
▁dam	-1907
▁arg	-1908
▁World	-1909
▁obviously	-1910
▁dou	-1911
▁bene	-1912
ogn	-1913
▁series	-1914
ression	-1915
ison	-1916
▁Aust	-1917
enn	-1918
ances	-1919
back	-1920
nam	-1921
▁science	-1922
ram	-1923
▁inde	-1924
▁areas	-1925
▁perfect	-1926
▁situation	-1927
▁cannot	-1928
▁built	-1929
▁higher	-1930
load	-1931
▁color	-1932
▁provide	-1933
▁address	-1934
▁bi	-1935
ume	-1936
irt	-1937
cing	-1938
▁cover	-1939
sy	-1940
▁obs	-1941
▁fast	-1942
crib	-1943
▁zero	-1944
▁moving	-1945
ograph	-1946
ules	-1947
ued	-1948
ibility	-1949
zy	-1950
elt	-1951
▁games	-1952
▁flo	-1953
▁detail	-1954
▁points	-1955
▁Look	-1956
▁fire	-1957
ouch	-1958
▁practice	-1959
▁countries	-1960
▁Inst	-1961
▁continue	-1962
lling	-1963
▁doc	-1964
irit	-1965
▁issues	-1966
ney	-1967
▁foot	-1968
vent	-1969
urity	-1970
▁Bl	-1971
▁happening	-1972
arily	-1973
▁manage	-1974
▁earl	-1975
cribe	-1976
face	-1977
▁rele	-1978
▁Jes	-1979
▁god	-1980
▁morning	-1981
ming	-1982
cle	-1983
▁problems	-1984
▁ant	-1985
▁living	-1986
▁jour	-1987
udd	-1988
▁wait	-1989
iful	-1990
▁themselves	-1991
▁age	-1992
▁music	-1993
utions	-1994
▁website	-1995
▁death	-1996
▁Man	-1997
▁separ	-1998
▁imag	-1999
iet	-2000
▁repl	-2001
▁further	-2002
▁negative	-2003
▁deg	-2004
▁impact	-2005
acy	-2006
▁react	-2007
▁changes	-2008
▁knew	-2009
▁quickly	-2010
▁screen	-2011
ological	-2012
ators	-2013
▁First	-2014
▁cy	-2015
▁profess	-2016
ball	-2017
uary	-2018
▁taken	-2019
ley	-2020
▁ste	-2021
etic	-2022
▁recogn	-2023
ung	-2024
▁towards	-2025
▁fine	-2026
entially	-2027
mber	-2028
uth	-2029
▁Ro	-2030
▁huge	-2031
▁source	-2032
▁absolute	-2033
▁beginning	-2034
▁minus	-2035
▁following	-2036
▁doll	-2037
▁glo	-2038
▁kids	-2039
ana	-2040
ousand	-2041
▁videos	-2042
iding	-2043
▁sorry	-2044
▁Of	-2045
light	-2046
ift	-2047
▁estab	-2048
▁difference	-2049
une	-2050
▁draw	-2051
▁fail	-2052
▁dom	-2053
ege	-2054
▁table	-2055
▁soci	-2056
▁concept	-2057
▁issue	-2058
▁gave	-2059
▁action	-2060
azing	-2061
▁playing	-2062
▁compet	-2063
▁network	-2064
ique	-2065
▁benef	-2066
oph	-2067
▁favor	-2068
son	-2069
ask	-2070
▁gives	-2071
▁instr	-2072
▁compan	-2073
▁Ear	-2074
▁consider	-2075
▁ball	-2076
ished	-2077
▁tre	-2078
used	-2079
▁aw	-2080
itten	-2081
▁starting	-2082
▁South	-2083
dom	-2084
▁pack	-2085
ef	-2086
▁stat	-2087
▁author	-2088
▁lost	-2089
▁respons	-2090
▁Yeaah	-2091
▁mach	-2092
icro	-2093
▁sn	-2094
▁among	-2095
▁Ed	-2096
cent	-2097
▁version	-2098
▁channel	-2099
ilities	-2100
cl	-2101
▁dest	-2102
▁His	-2103
▁Ab	-2104
▁deep	-2105
▁plat	-2106
ply	-2107
▁completely	-2108
vered	-2109
▁Cent	-2110
▁Min	-2111
▁path	-2112
icle	-2113
rought	-2114
izing	-2115
▁thousand	-2116
▁communic	-2117
▁National	-2118
▁inte	-2119
aining	-2120
apt	-2121
▁eat	-2122
▁national	-2123
▁rock	-2124
▁worked	-2125
▁Gu	-2126
▁Hey	-2127
▁ap	-2128
▁file	-2129
▁role	-2130
▁education	-2131
▁vo	-2132
▁parent	-2133
▁seems	-2134
▁numbers	-2135
bit	-2136
ndred	-2137
▁size	-2138
▁media	-2139
▁relig	-2140
▁longer	-2141
▁Jesus	-2142
▁Afric	-2143
▁various	-2144
▁shit	-2145
▁sle	-2146
iam	-2147
▁below	-2148
▁groups	-2149
ites	-2150
▁states	-2151
▁Act	-2152
▁card	-2153
▁sho	-2154
▁piece	-2155
urs	-2156
▁began	-2157
▁wel	-2158
thern	-2159
ffic	-2160
fer	-2161
ively	-2162
▁final	-2163
▁prim	-2164
▁Ge	-2165
ma	-2166
▁girl	-2167
▁political	-2168
▁arch	-2169
ays	-2170
▁review	-2171
▁prin	-2172
▁signific	-2173
ze	-2174
▁giving	-2175
eter	-2176
▁types	-2177
▁needed	-2178
▁Sc	-2179
▁web	-2180
▁opportunity	-2181
▁kinda	-2182
reme	-2183
▁feed	-2184
▁select	-2185
▁suggest	-2186
▁resources	-2187
▁scient	-2188
▁beautiful	-2189
▁paper	-2190
ops	-2191
asing	-2192
▁Te	-2193
▁strateg	-2194
▁sou	-2195
▁depend	-2196
▁tar	-2197
▁population	-2198
itary	-2199
▁Sch	-2200
▁picture	-2201
▁touch	-2202
▁parts	-2203
▁gone	-2204
▁seven	-2205
▁influ	-2206
▁track	-2207
yle	-2208
▁computer	-2209
▁hundred	-2210
▁En	-2211
▁coun	-2212
▁hot	-2213
▁travel	-2214
▁green	-2215
▁appear	-2216
▁training	-2217
▁People	-2218
lt	-2219
▁amazing	-2220
▁Good	-2221
▁natural	-2222
▁wouldn	-2223
▁command	-2224
▁feeling	-2225
▁i	-2226
gress	-2227
ms	-2228
▁middle	-2229
ips	-2230
▁finally	-2231
▁epis	-2232
orts	-2233
▁earlier	-2234
itor	-2235
▁phot	-2236
ublic	-2237
▁correct	-2238
▁tit	-2239
umb	-2240
ole	-2241
▁Dr	-2242
▁grad	-2243
▁jump	-2244
llo	-2245
▁platform	-2246
▁personal	-2247
ili	-2248
attle	-2249
aff	-2250
▁felt	-2251
▁ge	-2252
▁fucking	-2253
▁knowledge	-2254
uly	-2255
mp	-2256
ership	-2257
rench	-2258
▁match	-2259
▁companies	-2260
ging	-2261
▁due	-2262
▁America	-2263
▁structure	-2264
uh	-2265
let	-2266
▁upon	-2267
▁late	-2268
atures	-2269
▁hands	-2270
▁writing	-2271
▁accept	-2272
ny	-2273
▁libr	-2274
▁ideas	-2275
tend	-2276
plic	-2277
lex	-2278
ification	-2279
▁choose	-2280
ables	-2281
▁simply	-2282
▁manag	-2283
ground	-2284
▁Le	-2285
▁rate	-2286
▁interested	-2287
▁particip	-2288
▁services	-2289
iction	-2290
▁student	-2291
▁bottom	-2292
▁King	-2293
▁brought	-2294
ising	-2295
▁center	-2296
▁hor	-2297
ients	-2298
▁industry	-2299
▁involved	-2300
val	-2301
ps	-2302
▁Pres	-2303
ha	-2304
▁email	-2305
▁send	-2306
▁integr	-2307
▁respect	-2308
▁positive	-2309
gen	-2310
▁wants	-2311
▁From	-2312
▁Your	-2313
ival	-2314
artment	-2315
chie	-2316
▁pred	-2317
▁phone	-2318
▁extra	-2319
▁lower	-2320
medi	-2321
▁See	-2322
▁YouT	-2323
▁base	-2324
▁flow	-2325
▁North	-2326
▁image	-2327
▁disco	-2328
▁board	-2329
▁Our	-2330
▁launch	-2331
▁recomm	-2332
▁total	-2333
▁push	-2334
▁slow	-2335
▁purp	-2336
▁door	-2337
▁Somet	-2338
▁fix	-2339
▁modern	-2340
▁subject	-2341
▁interact	-2342
▁Russ	-2343
unt	-2344
▁Will	-2345
▁tools	-2346
astic	-2347
▁standard	-2348
▁shows	-2349
▁fair	-2350
▁region	-2351
▁force	-2352
▁Rep	-2353
▁bank	-2354
ada	-2355
▁sun	-2356
▁cam	-2357
▁welcome	-2358
▁item	-2359
▁results	-2360
dd	-2361
▁dark	-2362
▁mov	-2363
▁popular	-2364
▁Cal	-2365
▁contrib	-2366
▁eyes	-2367
▁Gen	-2368
erc	-2369
▁British	-2370
▁written	-2371
amed	-2372
▁road	-2373
▁India	-2374
▁fa	-2375
▁employ	-2376
▁meaning	-2377
▁risk	-2378
verage	-2379
▁claim	-2380
▁significant	-2381
▁site	-2382
▁Cause	-2383
go	-2384
▁measure	-2385
▁Was	-2386
▁dog	-2387
eth	-2388
▁cross	-2389
▁complex	-2390
▁anyone	-2391
▁couldn	-2392
▁Me	-2393
▁tried	-2394
▁round	-2395
▁dy	-2396
▁weeks	-2397
▁comment	-2398
▁pan	-2399
▁recommend	-2400
▁pea	-2401
▁clos	-2402
▁vi	-2403
ivil	-2404
▁learned	-2405
apan	-2406
▁blue	-2407
▁associ	-2408
▁changed	-2409
room	-2410
▁mother	-2411
▁experi	-2412
▁deb	-2413
▁ill	-2414
▁user	-2415
ox	-2416
▁developed	-2417
▁target	-2418
sc	-2419
▁nature	-2420
▁conversation	-2421
itution	-2422
▁multiple	-2423
of	-2424
▁tax	-2425
▁places	-2426
▁cases	-2427
▁dead	-2428
▁reading	-2429
▁led	-2430
▁clean	-2431
▁brain	-2432
▁disc	-2433
▁books	-2434
▁concern	-2435
▁church	-2436
▁lives	-2437
▁rev	-2438
▁Even	-2439
▁related	-2440
▁Har	-2441
▁ten	-2442
▁attention	-2443
oman	-2444
ray	-2445
▁button	-2446
▁YouTube	-2447
▁host	-2448
oon	-2449
▁normal	-2450
abor	-2451
▁fill	-2452
ires	-2453
chan	-2454
▁wall	-2455
▁safe	-2456
▁original	-2457
▁eight	-2458
oly	-2459
▁store	-2460
▁capital	-2461
▁Austral	-2462
▁York	-2463
▁speed	-2464
ges	-2465
▁goal	-2466
▁theory	-2467
▁affect	-2468
plement	-2469
▁cloud	-2470
▁Japan	-2471
▁constr	-2472
▁security	-2473
▁increase	-2474
▁ability	-2475
▁party	-2476
▁meeting	-2477
▁earth	-2478
▁spirit	-2479
▁save	-2480
cil	-2481
▁hey	-2482
▁Res	-2483
oke	-2484
▁Earth	-2485
▁policy	-2486
▁town	-2487
▁Again	-2488
▁upd	-2489
ctions	-2490
▁Qu	-2491
ama	-2492
▁autom	-2493
reci	-2494
▁above	-2495
▁physical	-2496
▁lots	-2497
emic	-2498
▁fund	-2499
▁require	-2500
▁himself	-2501
▁section	-2502
▁understanding	-2503
▁trust	-2504
▁El	-2505
▁culture	-2506
▁improve	-2507
▁terr	-2508
ring	-2509
more	-2510
▁sens	-2511
aries	-2512
▁pod	-2513
ius	-2514
▁office	-2515
▁achie	-2516
▁French	-2517
▁drop	-2518
▁woman	-2519
aced	-2520
▁range	-2521
▁software	-2522
▁pressure	-2523
▁temper	-2524
▁determ	-2525
▁challeng	-2526
▁implement	-2527
▁sum	-2528
▁princi	-2529
▁China	-2530
▁season	-2531
▁movement	-2532
▁events	-2533
▁Great	-2534
▁bunch	-2535
▁decided	-2536
▁absolutely	-2537
▁products	-2538
▁sleep	-2539
▁actual	-2540
▁Col	-2541
▁quality	-2542
▁straight	-2543
▁chance	-2544
▁Sy	-2545
▁Thanks	-2546
▁price	-2547
aby	-2548
▁minute	-2549
▁behav	-2550
▁production	-2551
▁ang	-2552
▁trade	-2553
▁worth	-2554
▁histor	-2555
▁sold	-2556
▁distrib	-2557
haps	-2558
▁throughout	-2559
▁describ	-2560
lying	-2561
▁military	-2562
▁considered	-2563
▁literally	-2564
ogle	-2565
rast	-2566
▁compon	-2567
for	-2568
empt	-2569
reg	-2570
▁organization	-2571
▁document	-2572
anch	-2573
oura	-2574
▁ce	-2575
▁father	-2576
ster	-2577
ilos	-2578
my	-2579
▁putting	-2580
▁supposed	-2581
cient	-2582
▁bur	-2583
▁star	-2584
▁Also	-2585
und	-2586
▁imm	-2587
estern	-2588
ession	-2589
play	-2590
oring	-2591
▁honest	-2592
cription	-2593
▁independ	-2594
cul	-2595
lus	-2596
pped	-2597
▁Fe	-2598
uted	-2599
▁direction	-2600
imately	-2601
▁cry	-2602
ishing	-2603
▁exec	-2604
▁Part	-2605
▁capt	-2606
▁played	-2607
▁Did	-2608
▁king	-2609
▁member	-2610
▁aware	-2611
▁square	-2612
inal	-2613
▁crazy	-2614
▁tur	-2615
▁Ke	-2616
▁context	-2617
asons	-2618
fort	-2619
▁wide	-2620
▁throw	-2621
▁Google	-2622
sych	-2623
▁sell	-2624
ades	-2625
ured	-2626
ugg	-2627
▁asking	-2628
▁plant	-2629
raft	-2630
▁mechan	-2631
enge	-2632
▁property	-2633
▁values	-2634
rap	-2635
▁notice	-2636
▁Bra	-2637
▁chat	-2638
iment	-2639
▁bed	-2640
▁chem	-2641
▁application	-2642
▁sat	-2643
ysis	-2644
▁certainly	-2645
cious	-2646
ief	-2647
▁conv	-2648
▁finan	-2649
▁setting	-2650
▁Par	-2651
▁heav	-2652
▁ord	-2653
▁telling	-2654
▁global	-2655
▁held	-2656
▁except	-2657
▁"'	-2658
▁society	-2659
▁directly	-2660
▁broad	-2661
▁blood	-2662
▁likely	-2663
▁swe	-2664
▁stage	-2665
▁Spe	-2666
▁particularly	-2667
▁potential	-2668
▁message	-2669
ibly	-2670
▁excited	-2671
▁emot	-2672
orrow	-2673
▁cook	-2674
▁Per	-2675
uit	-2676
▁turned	-2677
itation	-2678
▁frame	-2679
▁gas	-2680
▁decision	-2681
▁forget	-2682
▁copy	-2683
lled	-2684
▁German	-2685
▁wrote	-2686
▁basic	-2687
▁bal	-2688
▁Bar	-2689
▁cred	-2690
▁surpr	-2691
▁episode	-2692
▁Sw	-2693
▁intell	-2694
onse	-2695
ement	-2696
▁consum	-2697
▁Geor	-2698
idge	-2699
▁appreci	-2700
▁however	-2701
osp	-2702
ara	-2703
aul	-2704
▁sex	-2705
▁knows	-2706
▁projects	-2707
itted	-2708
ressed	-2709
▁constant	-2710
▁Fl	-2711
▁Most	-2712
▁boy	-2713
▁hur	-2714
▁kinds	-2715
▁prep	-2716
▁parents	-2717
▁Pol	-2718
▁Get	-2719
The	-2720
▁lines	-2721
▁President	-2722
▁perspect	-2723
▁offer	-2724
aur	-2725
▁emb	-2726
▁machine	-2727
▁fol	-2728
▁son	-2729
▁defe	-2730
▁immedi	-2731
▁song	-2732
atory	-2733
▁ton	-2734
▁added	-2735
▁surface	-2736
▁Intern	-2737
▁digital	-2738
▁sil	-2739
▁drive	-2740
erve	-2741
ivity	-2742
▁Jan	-2743
▁gold	-2744
▁sounds	-2745
▁becomes	-2746
▁useful	-2747
bon	-2748
▁average	-2749
▁Tod	-2750
▁management	-2751
▁drink	-2752
▁aren	-2753
▁private	-2754
▁comments	-2755
ned	-2756
▁European	-2757
▁Lord	-2758
▁Dav	-2759
▁micro	-2760
▁pe	-2761
▁load	-2762
lation	-2763
▁sam	-2764
▁extreme	-2765
ises	-2766
ped	-2767
▁stick	-2768
▁App	-2769
▁Christian	-2770
▁contact	-2771
ension	-2772
▁Ne	-2773
▁creating	-2774
cer	-2775
esome	-2776
▁quar	-2777
nal	-2778
▁Jew	-2779
▁stream	-2780
▁Mich	-2781
▁Another	-2782
bert	-2783
wise	-2784
▁enter	-2785
▁response	-2786
aker	-2787
▁prior	-2788
anger	-2789
▁mid	-2790
▁regard	-2791
▁truth	-2792
▁viol	-2793
▁solution	-2794
isions	-2795
ait	-2796
▁spend	-2797
▁print	-2798
▁frequ	-2799
▁moved	-2800
▁previous	-2801
▁regular	-2802
▁map	-2803
▁Char	-2804
▁indic	-2805
▁Mc	-2806
▁hair	-2807
▁international	-2808
▁jud	-2809
▁stories	-2810
▁examples	-2811
▁economic	-2812
▁ult	-2813
▁Med	-2814
ken	-2815
▁Bo	-2816
▁levels	-2817
▁feet	-2818
izations	-2819
minist	-2820
▁Those	-2821
▁easier	-2822
▁podcast	-2823
▁agre	-2824
▁player	-2825
▁generally	-2826
▁tour	-2827
▁speaking	-2828
▁surv	-2829
▁Cor	-2830
▁explain	-2831
bor	-2832
oid	-2833
▁mount	-2834
▁imagine	-2835
▁challenge	-2836
▁weird	-2837
anced	-2838
cript	-2839
▁note	-2840
▁occur	-2841
iverse	-2842
▁tree	-2843
▁While	-2844
resh	-2845
▁background	-2846
▁powerful	-2847
▁favorite	-2848
ky	-2849
▁cat	-2850
ID	-2851
▁anyway	-2852
▁features	-2853
▁programs	-2854
▁growth	-2855
▁rights	-2856
▁voice	-2857
cies	-2858
itic	-2859
▁thanks	-2860
irth	-2861
▁graph	-2862
▁aspect	-2863
amm	-2864
▁dollars	-2865
fact	-2866
▁math	-2867
▁suff	-2868
oo	-2869
icles	-2870
▁serious	-2871
▁evidence	-2872
▁weight	-2873
▁attempt	-2874
▁civil	-2875
▁switch	-2876
omb	-2877
yond	-2878
ari	-2879
▁Many	-2880
▁rule	-2881
▁agree	-2882
emy	-2883
cks	-2884
aly	-2885
▁Chin	-2886
▁sitting	-2887
inary	-2888
▁scale	-2889
▁West	-2890
▁contract	-2891
▁consist	-2892
▁topic	-2893
▁published	-2894
▁largest	-2895
▁purpose	-2896
▁bigger	-2897
▁north	-2898
▁currently	-2899
airs	-2900
▁species	-2901
▁park	-2902
▁Sam	-2903
▁option	-2904
▁although	-2905
▁pattern	-2906
ifically	-2907
▁Other	-2908
▁CO	-2909
ners	-2910
▁named	-2911
▁Budd	-2912
▁encoura	-2913
ider	-2914
▁stri	-2915
▁double	-2916
▁addition	-2917
▁analysis	-2918
nces	-2919
▁feature	-2920
▁request	-2921
▁mist	-2922
▁install	-2923
craft	-2924
▁wish	-2925
▁onto	-2926
▁Today	-2927
▁inn	-2928
▁thr	-2929
▁allowed	-2930
▁film	-2931
ecture	-2932
▁lose	-2933
▁date	-2934
▁mix	-2935
▁elements	-2936
▁mill	-2937
▁hop	-2938
▁maint	-2939
▁oppos	-2940
▁Indian	-2941
▁Acc	-2942
▁rules	-2943
▁essentially	-2944
rict	-2945
uments	-2946
ales	-2947
▁tend	-2948
uk	-2949
▁fit	-2950
hood	-2951
▁Gree	-2952
▁president	-2953
itude	-2954
▁Air	-2955
▁continu	-2956
▁staff	-2957
set	-2958
▁loss	-2959
ilosoph	-2960
▁animals	-2961
▁allows	-2962
▁anymore	-2963
▁der	-2964
▁fear	-2965
umn	-2966
▁spread	-2967
▁helps	-2968
▁dream	-2969
▁tele	-2970
▁psych	-2971
atives	-2972
▁worry	-2973
▁Two	-2974
lands	-2975
amb	-2976
▁Int	-2977
ceed	-2978
▁da	-2979
▁official	-2980
▁lik	-2981
mit	-2982
▁established	-2983
roy	-2984
gg	-2985
ino	-2986
▁join	-2987
▁listening	-2988
▁somewhere	-2989
▁library	-2990
ength	-2991
▁growing	-2992
▁Once	-2993
▁Ah	-2994
▁mission	-2995
▁reasons	-2996
▁degree	-2997
▁instance	-2998
▁neigh	-2999
▁slide	-3000
▁Mus	-3001
▁eye	-3002
▁title	-3003
▁former	-3004
▁err	-3005
ngth	-3006
▁Sm	-3007
▁wife	-3008
▁alone	-3009
oming	-3010
▁teaching	-3011
▁damage	-3012
▁Coll	-3013
▁shot	-3014
▁included	-3015
▁performance	-3016
sequ	-3017
▁fed	-3018
▁apply	-3019
▁virt	-3020
▁showing	-3021
▁carry	-3022
▁element	-3023
▁rout	-3024
▁communities	-3025
▁catch	-3026
▁magn	-3027
▁oil	-3028
▁smaller	-3029
▁Chinese	-3030
▁relative	-3031
▁successful	-3032
▁skills	-3033
olic	-3034
ault	-3035
▁perspective	-3036
▁veh	-3037
oting	-3038
▁central	-3039
rest	-3040
▁starts	-3041
imum	-3042
▁die	-3043
▁City	-3044
▁tom	-3045
arr	-3046
onstr	-3047
▁March	-3048
▁ple	-3049
▁hous	-3050
▁strugg	-3051
▁Aug	-3052
ata	-3053
▁refer	-3054
▁eventually	-3055
▁hyd	-3056
uses	-3057
▁recently	-3058
▁anybody	-3059
time	-3060
tle	-3061
▁internet	-3062
▁Have	-3063
▁discussion	-3064
▁Sim	-3065
▁according	-3066
▁Very	-3067
▁movie	-3068
▁fem	-3069
▁forces	-3070
ula	-3071
onom	-3072
▁cold	-3073
▁forg	-3074
▁II	-3075
▁bound	-3076
▁electric	-3077
▁alright	-3078
iant	-3079
ucle	-3080
like	-3081
fl	-3082
▁conver	-3083
▁strength	-3084
▁died	-3085
▁input	-3086
lim	-3087
aling	-3088
iny	-3089
▁Please	-3090
▁Rem	-3091
▁necessarily	-3092
enced	-3093
ties	-3094
▁Roman	-3095
▁equals	-3096
iced	-3097
ocr	-3098
▁interview	-3099
ees	-3100
▁Face	-3101
▁climate	-3102
▁dude	-3103
board	-3104
eag	-3105
▁required	-3106
ran	-3107
ls	-3108
▁easily	-3109
▁reality	-3110
▁core	-3111
▁Hello	-3112
▁college	-3113
▁traditional	-3114
▁Paul	-3115
▁perhaps	-3116
▁fish	-3117
▁therefore	-3118
anish	-3119
▁style	-3120
▁scri	-3121
▁schools	-3122
▁separate	-3123
▁pen	-3124
▁camera	-3125
▁progress	-3126
▁train	-3127
▁Sen	-3128
ping	-3129
▁den	-3130
▁Republic	-3131
▁Pat	-3132
▁Phil	-3133
▁quant	-3134
▁pray	-3135
▁August	-3136
▁Her	-3137
▁larger	-3138
▁repe	-3139
▁incred	-3140
▁choice	-3141
▁financial	-3142
▁greater	-3143
▁unf	-3144
▁police	-3145
▁south	-3146
▁memory	-3147
▁unique	-3148
▁received	-3149
▁names	-3150
▁born	-3151
▁meant	-3152
irm	-3153
▁categ	-3154
now	-3155
▁visit	-3156
▁yea	-3157
▁assign	-3158
▁beyond	-3159
▁opin	-3160
▁calcul	-3161
▁dise	-3162
▁analy	-3163
iber	-3164
lock	-3165
▁appl	-3166
ses	-3167
lebr	-3168
▁studies	-3169
▁demand	-3170
▁script	-3171
aign	-3172
iving	-3173
▁Oct	-3174
▁Next	-3175
▁ens	-3176
omen	-3177
▁conditions	-3178
▁funny	-3179
▁eh	-3180
▁biggest	-3181
▁uses	-3182
▁decl	-3183
▁subst	-3184
▁Church	-3185
▁dro	-3186
▁options	-3187
▁administ	-3188
▁kid	-3189
rief	-3190
▁active	-3191
▁activity	-3192
▁Cong	-3193
▁teams	-3194
▁folks	-3195
af	-3196
▁additional	-3197
▁subscribe	-3198
▁users	-3199
arian	-3200
▁advant	-3201
▁designed	-3202
▁temperature	-3203
▁rid	-3204
▁peace	-3205
▁contain	-3206
▁birth	-3207
▁gun	-3208
▁specifically	-3209
▁emerg	-3210
▁Sept	-3211
▁resist	-3212
erson	-3213
▁comfort	-3214
lam	-3215
▁Fin	-3216
vey	-3217
odes	-3218
▁Mon	-3219
▁steps	-3220
▁billion	-3221
rab	-3222
▁behavior	-3223
apter	-3224
▁economy	-3225
itute	-3226
▁unit	-3227
▁planet	-3228
dden	-3229
▁audience	-3230
▁breat	-3231
▁max	-3232
here	-3233
▁grand	-3234
▁sudden	-3235
▁cand	-3236
▁Des	-3237
▁assum	-3238
iation	-3239
▁exerc	-3240
key	-3241
▁baby	-3242
▁January	-3243
▁ter	-3244
▁ut	-3245
▁connected	-3246
▁mob	-3247
▁realize	-3248
andom	-3249
▁effic	-3250
▁forms	-3251
▁Facebook	-3252
aged	-3253
▁expand	-3254
▁threat	-3255
aid	-3256
▁nine	-3257
ani	-3258
istry	-3259
▁mis	-3260
▁ourselves	-3261
▁More	-3262
▁awesome	-3263
▁produce	-3264
▁kept	-3265
▁Comp	-3266
▁celebr	-3267
ober	-3268
▁feels	-3269
pir	-3270
edom	-3271
▁September	-3272
▁lock	-3273
▁During	-3274
▁mostly	-3275
▁condition	-3276
▁lack	-3277
ald	-3278
▁hopefully	-3279
▁seconds	-3280
▁nor	-3281
▁fan	-3282
▁reflect	-3283
based	-3284
▁rob	-3285
▁Hi	-3286
▁changing	-3287
▁wonderful	-3288
▁vict	-3289
▁players	-3290
oh	-3291
ux	-3292
ban	-3293
▁cast	-3294
▁appreciate	-3295
gy	-3296
unk	-3297
▁sequ	-3298
▁June	-3299
▁release	-3300
▁immediately	-3301
ulations	-3302
aging	-3303
▁activities	-3304
▁October	-3305
▁campaign	-3306
asc	-3307
▁scen	-3308
cond	-3309
pper	-3310
▁cit	-3311
pril	-3312
▁typically	-3313
▁killed	-3314
▁destroy	-3315
▁stress	-3316
iers	-3317
▁Ste	-3318
▁career	-3319
hold	-3320
▁effects	-3321
▁David	-3322
off	-3323
▁engage	-3324
▁secret	-3325
▁ur	-3326
▁percent	-3327
▁heat	-3328
rag	-3329
▁thoughts	-3330
▁April	-3331
▁released	-3332
▁customers	-3333
▁materials	-3334
▁critical	-3335
hy	-3336
▁Cr	-3337
itter	-3338
▁Dece	-3339
▁faith	-3340
ech	-3341
▁session	-3342
▁Does	-3343
▁spot	-3344
▁distance	-3345
▁summ	-3346
▁slight	-3347
▁adop	-3348
▁East	-3349
▁cells	-3350
▁philosoph	-3351
▁quarter	-3352
▁Africa	-3353
▁passed	-3354
▁dad	-3355
lin	-3356
▁floor	-3357
▁December	-3358
▁summer	-3359
ounced	-3360
NA	-3361
eration	-3362
In	-3363
▁showed	-3364
▁output	-3365
▁Come	-3366
▁According	-3367
▁details	-3368
▁sharing	-3369
▁lesson	-3370
▁includes	-3371
▁dim	-3372
▁hol	-3373
▁Dep	-3374
▁assist	-3375
▁Sometimes	-3376
▁increasing	-3377
▁poor	-3378
▁score	-3379
▁nucle	-3380
▁Although	-3381
▁band	-3382
▁organizations	-3383
▁models	-3384
▁July	-3385
▁remind	-3386
▁spent	-3387
▁helped	-3388
▁State	-3389
▁arr	-3390
▁rank	-3391
▁respond	-3392
ucing	-3393
▁cards	-3394
▁battle	-3395
▁ended	-3396
atically	-3397
▁Sci	-3398
▁description	-3399
▁wild	-3400
▁identify	-3401
▁luck	-3402
istics	-3403
inated	-3404
▁bird	-3405
▁pieces	-3406
▁Since	-3407
▁effort	-3408
▁collabor	-3409
▁saf	-3410
▁ox	-3411
▁random	-3412
▁shape	-3413
rible	-3414
▁Black	-3415
▁produced	-3416
▁fully	-3417
▁drug	-3418
wor	-3419
▁totally	-3420
▁electr	-3421
ened	-3422
▁Mark	-3423
▁achieve	-3424
▁adj	-3425
▁window	-3426
▁languages	-3427
▁datab	-3428
▁smart	-3429
▁brother	-3430
ounds	-3431
▁provided	-3432
▁San	-3433
▁arri	-3434
▁teacher	-3435
anc	-3436
ously	-3437
▁interp	-3438
▁paid	-3439
▁nation	-3440
uate	-3441
ittee	-3442
▁Mal	-3443
▁basis	-3444
▁charge	-3445
ava	-3446
▁weap	-3447
▁religious	-3448
ocol	-3449
▁carbon	-3450
▁TV	-3451
▁coach	-3452
▁disapp	-3453
▁detect	-3454
ufact	-3455
▁conduct	-3456
▁Dis	-3457
▁Really	-3458
▁length	-3459
men	-3460
▁connection	-3461
▁followed	-3462
▁Gra	-3463
▁instruct	-3464
rian	-3465
▁university	-3466
▁root	-3467
▁waiting	-3468
▁hang	-3469
▁Jack	-3470
▁Nove	-3471
▁Australia	-3472
▁Union	-3473
▁capac	-3474
▁trou	-3475
osph	-3476
▁clearly	-3477
▁ancient	-3478
▁und	-3479
ologies	-3480
roll	-3481
aves	-3482
▁helping	-3483
▁Gr	-3484
▁List	-3485
▁France	-3486
▁Red	-3487
▁intellig	-3488
▁location	-3489
ham	-3490
▁ice	-3491
▁leading	-3492
sing	-3493
vant	-3494
▁acad	-3495
▁journey	-3496
▁rich	-3497
▁Over	-3498
▁compl	-3499
▁overall	-3500
▁Germany	-3501
▁International	-3502
▁wood	-3503
▁Dem	-3504
▁pow	-3505
▁finish	-3506
iliar	-3507
▁initial	-3508
▁Center	-3509
▁Je	-3510
▁legal	-3511
agram	-3512
inc	-3513
▁presentation	-3514
▁November	-3515
▁univers	-3516
uff	-3517
▁symb	-3518
▁commer	-3519
▁investig	-3520
▁Ob	-3521
▁limited	-3522
SA	-3523
▁shall	-3524
▁sea	-3525
▁recent	-3526
▁rot	-3527
itory	-3528
▁sus	-3529
umber	-3530
▁located	-3531
rial	-3532
ica	-3533
▁shown	-3534
▁challenges	-3535
▁focused	-3536
▁letter	-3537
▁article	-3538
▁brand	-3539
▁strategy	-3540
▁associated	-3541
▁schol	-3542
▁court	-3543
othes	-3544
▁farm	-3545
encies	-3546
▁professional	-3547
▁danger	-3548
▁reco	-3549
▁lif	-3550
▁Canada	-3551
▁ship	-3552
▁Em	-3553
▁objects	-3554
▁Wel	-3555
▁laws	-3556
▁sem	-3557
▁cities	-3558
▁mat	-3559
▁column	-3560
▁primary	-3561
▁highly	-3562
▁limit	-3563
ilies	-3564
ulate	-3565
agn	-3566
rees	-3567
▁Park	-3568
▁visual	-3569
eared	-3570
▁Im	-3571
▁bud	-3572
band	-3573
▁Pre	-3574
▁master	-3575
iday	-3576
osh	-3577
▁shop	-3578
iest	-3579
using	-3580
▁Take	-3581
▁solve	-3582
▁finding	-3583
▁spl	-3584
iforn	-3585
▁safety	-3586
▁AP	-3587
▁Nor	-3588
▁necessary	-3589
eal	-3590
▁doub	-3591
▁Californ	-3592
▁slash	-3593
▁assess	-3594
▁bull	-3595
▁transport	-3596
cean	-3597
ipe	-3598
order	-3599
▁leader	-3600
▁applications	-3601
▁fant	-3602
▁rain	-3603
▁download	-3604
▁archit	-3605
ibr	-3606
cell	-3607
▁kick	-3608
▁counter	-3609
aughter	-3610
▁station	-3611
▁manufact	-3612
▁decide	-3613
▁classes	-3614
▁device	-3615
▁drag	-3616
▁effective	-3617
▁functions	-3618
▁School	-3619
▁layer	-3620
▁Cath	-3621
▁predict	-3622
oses	-3623
▁skin	-3624
▁brief	-3625
▁workers	-3626
iles	-3627
▁continued	-3628
▁plants	-3629
▁Bas	-3630
▁mental	-3631
▁influence	-3632
inate	-3633
▁mine	-3634
▁ec	-3635
▁feedback	-3636
▁struct	-3637
oms	-3638
▁dial	-3639
ship	-3640
▁Sat	-3641
▁altern	-3642
aven	-3643
▁flight	-3644
▁medical	-3645
igg	-3646
''	-3647
▁sources	-3648
▁Before	-3649
▁syn	-3650
▁California	-3651
▁items	-3652
▁tomorrow	-3653
▁majority	-3654
▁shared	-3655
▁images	-3656
▁lived	-3657
▁variable	-3658
▁described	-3659
▁Val	-3660
▁tells	-3661
▁heavy	-3662
▁trick	-3663
▁walking	-3664
vere	-3665
verse	-3666
▁collection	-3667
rupt	-3668
▁methods	-3669
▁innov	-3670
▁versus	-3671
▁prevent	-3672
▁notes	-3673
▁alg	-3674
▁forth	-3675
▁General	-3676
▁hydro	-3677
▁familiar	-3678
▁advantage	-3679
▁James	-3680
▁param	-3681
▁nut	-3682
▁jobs	-3683
▁Count	-3684
▁older	-3685
▁labor	-3686
ervation	-3687
zz	-3688
▁units	-3689
ondon	-3690
▁extremely	-3691
▁Green	-3692
▁turns	-3693
▁roll	-3694
ortunately	-3695
▁sched	-3696
ael	-3697
VID	-3698
▁receive	-3699
hib	-3700
▁yell	-3701
▁goals	-3702
word	-3703
▁citiz	-3704
▁tradition	-3705
▁reaction	-3706
▁miles	-3707
ounce	-3708
▁kil	-3709
▁House	-3710
▁task	-3711
▁famous	-3712
▁independent	-3713
▁engineering	-3714
▁freedom	-3715
▁London	-3716
▁esc	-3717
▁faster	-3718
▁Alex	-3719
▁whe	-3720
mon	-3721
▁Make	-3722
▁communication	-3723
▁beat	-3724
▁transl	-3725
▁expected	-3726
cr	-3727
▁testing	-3728
▁characters	-3729
▁sust	-3730
down	-3731
▁bag	-3732
▁equation	-3733
bed	-3734
▁race	-3735
▁Stud	-3736
▁planning	-3737
%.	-3738
▁demonstr	-3739
▁families	-3740
▁William	-3741
▁journal	-3742
▁factor	-3743
▁opened	-3744
▁bringing	-3745
▁Welcome	-3746
▁Cont	-3747
▁Mo	-3748
▁Pal	-3749
▁purch	-3750
▁Coun	-3751
lict	-3752
▁IS	-3753
ulf	-3754
▁ran	-3755
▁medic	-3756
▁express	-3757
▁variety	-3758
▁Ant	-3759
▁phr	-3760
▁mole	-3761
▁reference	-3762
erved	-3763
▁grab	-3764
▁closed	-3765
▁belief	-3766
▁statement	-3767
▁emp	-3768
▁opinion	-3769
▁stock	-3770
▁BC	-3771
▁opportunities	-3772
reet	-3773
▁inform	-3774
ructure	-3775
▁hearing	-3776
pro	-3777
▁Op	-3778
▁balance	-3779
uel	-3780
force	-3781
ario	-3782
pite	-3783
vision	-3784
▁scientific	-3785
▁covered	-3786
▁Ac	-3787
▁Lat	-3788
▁avoid	-3789
▁Mor	-3790
▁thousands	-3791
▁Sec	-3792
▁increased	-3793
▁partner	-3794
▁district	-3795
acc	-3796
▁individuals	-3797
▁hosp	-3798
ico	-3799
▁Western	-3800
▁highest	-3801
▁electron	-3802
king	-3803
▁display	-3804
▁transform	-3805
▁lic	-3806
▁calling	-3807
▁helpful	-3808
▁willing	-3809
▁server	-3810
▁branch	-3811
▁Yea	-3812
▁properties	-3813
▁colon	-3814
▁Remember	-3815
nes	-3816
▁forest	-3817
ams	-3818
▁chemical	-3819
▁credit	-3820
▁sales	-3821
▁lin	-3822
rael	-3823
▁leaders	-3824
▁whose	-3825
change	-3826
▁glass	-3827
oted	-3828
aint	-3829
lection	-3830
ying	-3831
▁Emp	-3832
▁COVID	-3833
inct	-3834
igr	-3835
ropri	-3836
▁England	-3837
ae	-3838
ography	-3839
gn	-3840
▁depending	-3841
ests	-3842
bruary	-3843
▁Tom	-3844
izes	-3845
▁animal	-3846
▁vision	-3847
how	-3848
▁concent	-3849
▁trees	-3850
▁February	-3851
▁budget	-3852
▁Tra	-3853
▁Spanish	-3854
▁divided	-3855
▁transfer	-3856
mas	-3857
▁decisions	-3858
▁supply	-3859
▁income	-3860
▁harm	-3861
▁serve	-3862
▁wave	-3863
▁benefit	-3864
▁fat	-3865
▁rap	-3866
▁phase	-3867
▁nav	-3868
▁mode	-3869
▁edge	-3870
▁Port	-3871
▁fold	-3872
▁anti	-3873
▁mer	-3874
▁corner	-3875
▁shut	-3876
▁Islam	-3877
▁federal	-3878
▁solid	-3879
▁cris	-3880
▁Buddh	-3881
▁compared	-3882
▁defense	-3883
useum	-3884
mission	-3885
▁technical	-3886
ato	-3887
▁defined	-3888
▁Congress	-3889
ya	-3890
urg	-3891
irr	-3892
▁	-3893
e	-3894
t	-3895
o	-3896
a	-3897
n	-3898
i	-3899
s	-3900
r	-3901
h	-3902
l	-3903
d	-3904
u	-3905
c	-3906
m	-3907
y	-3908
g	-3909
,	-3910
w	-3911
f	-3912
p	-3913
.	-3914
b	-3915
k	-3916
v	-3917
'	-3918
I	-3919
A	-3920
T	-3921
S	-3922
x	-3923
W	-3924
j	-3925
C	-3926
B	-3927
0	-3928
?	-3929
M	-3930
1	-3931
U	-3932
H	-3933
O	-3934
Y	-3935
P	-3936
N	-3937
q	-3938
D	-3939
-	-3940
L	-3941
z	-3942
2	-3943
R	-3944
E	-3945
G	-3946
F	-3947
J	-3948
9	-3949
5	-3950
3	-3951
K	-3952
4	-3953
8	-3954
V	-3955
6	-3956
7	-3957
–	-3958
!	-3959
=	-3960
%	-3961
Q	-3962
Z	-3963
"	-3964
X	-3965
$	-3966
—	-3967
é	-3968
&	-3969
°	-3970
*	-3971
«	-3972
»	-3973
+	-3974
ü	-3975
−	-3976
á	-3977
£	-3978
ö	-3979
ó	-3980
í	-3981
)	-3982
ñ	-3983
(	-3984
\	-3985
{	-3986
ā	-3987
ç	-3988
è	-3989
×	-3990
…	-3991
/	-3992
ä	-3993
α	-3994
ō	-3995
ã	-3996
а	-3997
о	-3998
�	-3999
и	-4000
⟩	-4001
_	-4002
à	-4003
⟨	-4004
±	-4005
É	-4006
е	-4007
π	-4008
█	-4009
λ	-4010
н	-4011
σ	-4012
с	-4013
μ	-4014
ú	-4015
ć	-4016
р	-4017
€	-4018
ô	-4019
т	-4020
æ	-4021
⁄	-4022
Δ	-4023
ł	-4024
َ	-4025
θ	-4026
′	-4027
β	-4028
к	-4029
ﷺ	-4030
ل	-4031
ا	-4032
ρ	-4033
。	-4034
ε	-4035
µ	-4036
ω	-4037
ν	-4038
в	-4039
:	-4040
ū	-4041
л	-4042
ī	-4043
γ	-4044
τ	-4045
″	-4046
â	-4047
ο	-4048
[	-4049
⁡	-4050
†	-4051
φ	-4052
ʔ	-4053
م	-4054
ê	-4055
ß	-4056
₹	-4057
的	-4058
š	-4059
д	-4060
]	-4061
½	-4062
ë	-4063
ς	-4064
ي	-4065
м	-4066
у	-4067
≤	-4068
ψ	-4069
ι	-4070
č	-4071
п	-4072
я	-4073
ɣ	-4074
ø	-4075
κ	-4076
§	-4077
我	-4078
ن	-4079
∈	-4080
й	-4081
و	-4082
ʻ	-4083
→	-4084
ɪ	-4085
ْ	-4086
ʿ	-4087
ر	-4088
≈	-4089
是	-4090
ń	-4091
Φ	-4092
С	-4093
Á	-4094
≠	-4095
η	-4096
ɡ	-4097
一	-4098
î	-4099
ό	-4100
≥	-4101
å	-4102
з	-4103
ِ	-4104
于	-4105
ž	-4106
б	-4107
²	-4108
ь	-4109
г	-4110
δ	-4111
ì	-4112
ب	-4113
О	-4114
ı	-4115
ί	-4116
ُ	-4117
·	-4118
》	-4119
Î	-4120
ه	-4121
ē	-4122
И	-4123
Ö	-4124
Ω	-4125
∞	-4126
د	-4127
生	-4128
А	-4129
ș	-4130
中	-4131
你	-4132
ɔ	-4133
ï	-4134
ś	-4135
ʃ	-4136
ت	-4137
ы	-4138
Р	-4139
ч	-4140
س	-4141
ك	-4142
ʰ	-4143
不	-4144
Т	-4145
、	-4146
ع	-4147
ù	-4148
К	-4149
ύ	-4150
在	-4151
ة	-4152
们	-4153
ǎ	-4154
ー	-4155
М	-4156
ά	-4157
ح	-4158
υ	-4159
国	-4160
ʊ	-4161
大	-4162
Ü	-4163
П	-4164
这	-4165
人	-4166
В	-4167
⋅	-4168
了	-4169
έ	-4170
χ	-4171
Н	-4172
Š	-4173
死	-4174
ṣ	-4175
ò	-4176
个	-4177
有	-4178
다	-4179
י	-4180
ː	-4181
ɛ	-4182
い	-4183
安	-4184
患	-4185
天	-4186
忧	-4187
好	-4188
ц	-4189
乐	-4190
요	-4191
ɕ	-4192
Е	-4193
学	-4194
أ	-4195
¥	-4196
ف	-4197
˙	-4198
ṭ	-4199
¿	-4200
す	-4201
ま	-4202
‖	-4203
以	-4204
ﷻ	-4205
ו	-4206
来	-4207
ʌ	-4208
ж	-4209
ἀ	-4210
#	-4211
要	-4212
Б	-4213
ّ	-4214
Д	-4215
‬	-4216
么	-4217
ή	-4218
ה	-4219
¼	-4220
х	-4221
ǒ	-4222
会	-4223
他	-4224
看	-4225
ج	-4226
ق	-4227
上	-4228
‑	-4229
道	-4230
ְ	-4231
Č	-4232
可	-4233
就	-4234
ğ	-4235
意	-4236
呃	-4237
子	-4238
ǐ	-4239
ר	-4240
ш	-4241
家	-4242
ф	-4243
Å	-4244
ת	-4245
√	-4246
ş	-4247
ṇ	-4248
ㄴ	-4249
字	-4250
用	-4251
文	-4252
Л	-4253
ζ	-4254
Г	-4255
ָ	-4256
し	-4257
ん	-4258
ż	-4259
下	-4260
어	-4261
©	-4262
ン	-4263
那	-4264
™	-4265
З	-4266
ּ	-4267
カ	-4268
Đ	-4269
ě	-4270
이	-4271
ă	-4272
う	-4273
ˈ	-4274
ל	-4275
ṛ	-4276
У	-4277
ý	-4278
Ž	-4279
语	-4280
ю	-4281
で	-4282
日	-4283
ɑ	-4284
说	-4285
Ś	-4286
ز	-4287
ى	-4288
ש	-4289
ア	-4290
û	-4291
到	-4292
Λ	-4293
إ	-4294
イ	-4295
里	-4296
ŋ	-4297
;	-4298
教	-4299
か	-4300
ス	-4301
ش	-4302
ǔ	-4303
什	-4304
地	-4305
思	-4306
な	-4307
א	-4308
∫	-4309
音	-4310
니	-4311
ʾ	-4312
Π	-4313
本	-4314
词	-4315
Ø	-4316
ạ	-4317
に	-4318
ὁ	-4319
は	-4320
ę	-4321
ħ	-4322
句	-4323
多	-4324
에	-4325
心	-4326
所	-4327
ṃ	-4328
式	-4329
た	-4330
表	-4331
ð	-4332
法	-4333
ב	-4334
ד	-4335
三	-4336
神	-4337
西	-4338
®	-4339
能	-4340
・	-4341
和	-4342
时	-4343
Ā	-4344
事	-4345
面	-4346
想	-4347
者	-4348
行	-4349
ℏ	-4350
话	-4351
Ь	-4352
呢	-4353
小	-4354
新	-4355
问	-4356
ʒ	-4357
מ	-4358
ラ	-4359
如	-4360
对	-4361
ص	-4362
快	-4363
族	-4364
水	-4365
起	-4366
≡	-4367
也	-4368
の	-4369
十	-4370
老	-4371
아	-4372
之	-4373
北	-4374
成	-4375
都	-4376
̥	-4377
做	-4378
기	-4379
Ç	-4380
Ł	-4381
ḥ	-4382
很	-4383
ト	-4384
名	-4385
后	-4386
言	-4387
ź	-4388
Я	-4389
再	-4390
Х	-4391
―	-4392
四	-4393
語	-4394
가	-4395
还	-4396
는	-4397
り	-4398
公	-4399
华	-4400
吗	-4401
民	-4402
ط	-4403
工	-4404
כ	-4405
海	-4406
서	-4407
ル	-4408
年	-4409
고	-4410
들	-4411
đ	-4412
Ц	-4413
ㄱ	-4414
东	-4415
动	-4416
社	-4417
Й	-4418
得	-4419
明	-4420
英	-4421
豆	-4422
지	-4423
て	-4424
タ	-4425
方	-4426
自	-4427
œ	-4428
э	-4429
あ	-4430
定	-4431
院	-4432
נ	-4433
分	-4434
前	-4435
情	-4436
没	-4437
ֹ	-4438
こ	-4439
为	-4440
京	-4441
出	-4442
理	-4443
수	-4444
ṁ	-4445
が	-4446
リ	-4447
ℓ	-4448
キ	-4449
去	-4450
ק	-4451
く	-4452
時	-4453
्	-4454
₱	-4455
ク	-4456
合	-4457
母	-4458
漢	-4459
ệ	-4460
と	-4461
样	-4462
谢	-4463
ϕ	-4464
ṅ	-4465
基	-4466
ַ	-4467
하	-4468
¾	-4469
Ф	-4470
ִ	-4471
点	-4472
있	-4473
ț	-4474
常	-4475
物	-4476
だ	-4477
哪	-4478
這	-4479
ם	-4480
خ	-4481
さ	-4482
る	-4483
书	-4484
個	-4485
外	-4486
市	-4487
美	-4488
ə	-4489
そ	-4490
を	-4491
사	-4492
្	-4493
Ḥ	-4494
ὀ	-4495
ィ	-4496
コ	-4497
同	-4498
答	-4499
经	-4500
ą	-4501
ذ	-4502
᾽	-4503
シ	-4504
知	-4505
示	-4506
お	-4507
主	-4508
二	-4509
今	-4510
哉	-4511
相	-4512
ė	-4513
ั	-4514
啊	-4515
开	-4516
腐	-4517
ő	-4518
も	-4519
オ	-4520
ㄷ	-4521
但	-4522
岂	-4523
科	-4524
À	-4525
Ż	-4526
き	-4527
南	-4528
号	-4529
回	-4530
ს	-4531
太	-4532
山	-4533
课	-4534
部	-4535
도	-4536
比	-4537
よ	-4538
ッ	-4539
台	-4540
正	-4541
花	-4542
见	-4543
³	-4544
Ж	-4545
Ч	-4546
ً	-4547
ウ	-4548
マ	-4549
先	-4550
它	-4551
次	-4552
王	-4553
请	-4554
过	-4555
候	-4556
当	-4557
或	-4558
高	-4559
을	-4560
ね	-4561
み	-4562
师	-4563
第	-4564
重	-4565
黄	-4566
습	-4567
İ	-4568
力	-4569
加	-4570
形	-4571
株	-4572
现	-4573
金	-4574
힘	-4575
ɴ	-4576
ׁ	-4577
ז	-4578
光	-4579
平	-4580
数	-4581
리	-4582
щ	-4583
ご	-4584
ら	-4585
テ	-4586
元	-4587
最	-4588
茶	-4589
长	-4590
题	-4591
은	-4592
주	-4593
ř	-4594
ξ	-4595
ḍ	-4596
일	-4597
ס	-4598
ễ	-4599
些	-4600
位	-4601
把	-4602
通	-4603
Æ	-4604
吃	-4605
ต	-4606
ㄹ	-4607
代	-4608
來	-4609
发	-4610
精	-4611
车	-4612
해	-4613
エ	-4614
嗯	-4615
早	-4616
给	-4617
非	-4618
Α	-4619
ง	-4620
ย	-4621
า	-4622
ダ	-4623
两	-4624
東	-4625
Â	-4626
จ	-4627
ế	-4628
ナ	-4629
九	-4630
听	-4631
圣	-4632
怎	-4633
月	-4634
Ä	-4635
Ъ	-4636
じ	-4637
せ	-4638
何	-4639
感	-4640
电	-4641
种	-4642
阿	-4643
구	-4644
나	-4645
ɾ	-4646
Ṣ	-4647
ち	-4648
ジ	-4649
作	-4650
信	-4651
國	-4652
星	-4653
果	-4654
電	-4655
Ó	-4656
⇒	-4657
ド	-4658
关	-4659
州	-4660
应	-4661
手	-4662
提	-4663
真	-4664
舌	-4665
读	-4666
ʷ	-4667
ム	-4668
儿	-4669
士	-4670
火	-4671
直	-4672
着	-4673
õ	-4674
र	-4675
ा	-4676
้	-4677
‎	-4678
っ	-4679
サ	-4680
ニ	-4681
广	-4682
指	-4683
然	-4684
詞	-4685
间	-4686
그	-4687
Ō	-4688
世	-4689
宇	-4690
打	-4691
清	-4692
한	-4693
¡	-4694
ח	-4695
ض	-4696
त	-4697
ồ	-4698
保	-4699
宙	-4700
朝	-4701
注	-4702
边	-4703
需	-4704
무	-4705
ث	-4706
バ	-4707
体	-4708
化	-4709
头	-4710
容	-4711
度	-4712
국	-4713
전	-4714
ิ	-4715
わ	-4716
例	-4717
們	-4718
女	-4719
學	-4720
書	-4721
沙	-4722
白	-4723
話	-4724
食	-4725
香	-4726
동	-4727
저	-4728
화	-4729
ء	-4730
∑	-4731
从	-4732
微	-4733
省	-4734
督	-4735
跟	-4736
路	-4737
를	-4738
자	-4739
‒	-4740
フ	-4741
プ	-4742
其	-4743
動	-4744
只	-4745
吧	-4746
喜	-4747
性	-4748
⁵	-4749
帝	-4750
準	-4751
空	-4752
结	-4753
解	-4754
身	-4755
間	-4756
鸡	-4757
Ε	-4758
ᾶ	-4759
ハ	-4760
图	-4761
奇	-4762
汉	-4763
片	-4764
青	-4765
좋	-4766
Í	-4767
ơ	-4768
Τ	-4769
全	-4770
土	-4771
姓	-4772
寺	-4773
气	-4774
特	-4775
等	-4776
记	-4777
만	-4778
말	-4779
Ú	-4780
え	-4781
ど	-4782
ミ	-4783
利	-4784
口	-4785
始	-4786
宗	-4787
斯	-4788
江	-4789
洲	-4790
為	-4791
福	-4792
让	-4793
보	-4794
시	-4795
́	-4796
غ	-4797
ἰ	-4798
パ	-4799
云	-4800
又	-4801
该	-4802
너	-4803
오	-4804
ˣ	-4805
⋯	-4806
交	-4807
六	-4808
内	-4809
包	-4810
原	-4811
因	-4812
己	-4813
必	-4814
才	-4815
政	-4816
春	-4817
會	-4818
영	-4819
제	-4820
Ш	-4821
ע	-4822
म	-4823
อ	-4824
ใ	-4825
五	-4826
徒	-4827
根	-4828
港	-4829
符	-4830
肉	-4831
Ş	-4832
Κ	-4833
פ	-4834
آ	-4835
ส	-4836
ἐ	-4837
⁹	-4838
ュ	-4839
レ	-4840
业	-4841
住	-4842
千	-4843
声	-4844
撈	-4845
更	-4846
業	-4847
达	-4848
际	-4849
鱼	-4850
면	-4851
음	-4852
¨	-4853
Ī	-4854
ώ	-4855
ả	-4856
⁶	-4857
∆	-4858
ゃ	-4859
ょ	-4860
ケ	-4861
チ	-4862
デ	-4863
义	-4864
写	-4865
区	-4866
否	-4867
坐	-4868
對	-4869
府	-4870
康	-4871
研	-4872
開	-4873
게	-4874
싶	-4875
ן	-4876
ọ	-4877
れ	-4878
グ	-4879
习	-4880
修	-4881
叫	-4882
告	-4883
夫	-4884
接	-4885
期	-4886
某	-4887
界	-4888
程	-4889
酒	-4890
여	-4891
∗	-4892
ガ	-4893
ャ	-4894
万	-4895
八	-4896
单	-4897
司	-4898
客	-4899
師	-4900
建	-4901
影	-4902
找	-4903
技	-4904
色	-4905
讲	-4906
麼	-4907
黑	-4908
먹	-4909
친	-4910
ˡ	-4911
Μ	-4912
व	-4913
स	-4914
め	-4915
や	-4916
使	-4917
友	-4918
哥	-4919
少	-4920
欢	-4921
被	-4922
观	-4923
集	-4924
龙	-4925
와	-4926
ư	-4927
ร	-4928
่	-4929
Ṭ	-4930
ἔ	-4931
ェ	-4932
ロ	-4933
ワ	-4934
七	-4935
别	-4936
型	-4937
報	-4938
姐	-4939
实	-4940
带	-4941
德	-4942
您	-4943
机	-4944
李	-4945
立	-4946
针	-4947
간	-4948
장	-4949
Ю	-4950
ֶ	-4951
य	-4952
ि	-4953
∂	-4954
几	-4955
刚	-4956
哦	-4957
场	-4958
房	-4959
无	-4960
朱	-4961
油	-4962
活	-4963
秦	-4964
究	-4965
节	-4966
長	-4967
餐	-4968
鹿	-4969
미	-4970
안	-4971
없	-4972
정	-4973
학	-4974
¯	-4975
Β	-4976
Σ	-4977
Э	-4978
ё	-4979
ٍ	-4980
ก	-4981
ค	-4982
ท	-4983
ὐ	-4984
ろ	-4985
与	-4986
佛	-4987
初	-4988
卫	-4989
味	-4990
婚	-4991
局	-4992
已	-4993
帮	-4994
愛	-4995
放	-4996
服	-4997
望	-4998
澳	-4999
目	-5000
血	-5001
试	-5002
飞	-5003
馆	-5004
´	-5005
प	-5006
น	-5007
‡	-5008
ズ	-5009
乳	-5010
件	-5011
問	-5012
器	-5013
富	-5014
彩	-5015
志	-5016
拼	-5017
条	-5018
校	-5019
爺	-5020
私	-5021
算	-5022
華	-5023
谁	-5024
门	-5025
马	-5026
비	-5027
식	-5028
원	-5029
Θ	-5030
№	-5031
ざ	-5032
ビ	-5033
像	-5034
努	-5035
午	-5036
博	-5037
古	-5038
央	-5039
恩	-5040
持	-5041
改	-5042
氣	-5043
游	-5044
父	-5045
球	-5046
發	-5047
石	-5048
管	-5049
線	-5050
红	-5051
而	-5052
般	-5053
船	-5054
认	-5055
诉	-5056
走	-5057
마	-5058
세	-5059
ئ	-5060
ٌ	-5061
け	-5062
乡	-5063
共	-5064
员	-5065
周	-5066
啦	-5067
城	-5068
宝	-5069
散	-5070
朋	-5071
术	-5072
案	-5073
每	-5074
無	-5075
爱	-5076
牛	-5077
男	-5078
菜	-5079
街	-5080
見	-5081
量	-5082
雨	-5083
願	-5084
鲜	-5085
거	-5086
금	-5087
생	-5088
운	-5089
Ṛ	-5090
介	-5091
助	-5092
医	-5093
变	-5094
妹	-5095
孔	-5096
步	-5097
瓷	-5098
皇	-5099
系	-5100
羊	-5101
航	-5102
草	-5103
虚	-5104
阳	-5105
頭	-5106
날	-5107
대	-5108
라	-5109
분	-5110
조	-5111
준	-5112
¢	-5113
ว	-5114
ậ	-5115
ố	-5116
Ἀ	-5117
⁴	-5118
セ	-5119
ブ	-5120
メ	-5121
克	-5122
兰	-5123
卡	-5124
另	-5125
呂	-5126
呻	-5127
复	-5128
完	-5129
总	-5130
普	-5131
治	-5132
洋	-5133
流	-5134
湾	-5135
眼	-5136
苗	-5137
菊	-5138
觉	-5139
說	-5140
講	-5141
连	-5142
醋	-5143
體	-5144
魚	-5145
갑	-5146
람	-5147
씨	-5148
우	-5149
합	-5150
>	-5151
ˌ	-5152
क	-5153
ไ	-5154
⁰	-5155
へ	-5156
べ	-5157
ョ	-5158
ㄸ	-5159
兴	-5160
品	-5161
并	-5162
引	-5163
担	-5164
換	-5165
摩	-5166
木	-5167
段	-5168
河	-5169
現	-5170
禮	-5171
站	-5172
篇	-5173
結	-5174
考	-5175
車	-5176
饭	-5177
물	-5178
È	-5179
ň	-5180
Χ	-5181
Ψ	-5182
ม	-5183
ộ	-5184
つ	-5185
ォ	-5186
ベ	-5187
ヴ	-5188
似	-5189
准	-5190
制	-5191
及	-5192
双	-5193
受	-5194
尔	-5195
尼	-5196
弟	-5197
律	-5198
态	-5199
排	-5200
易	-5201
格	-5202
椒	-5203
機	-5204
煮	-5205
珍	-5206
礼	-5207
米	-5208
級	-5209
造	-5210
风	-5211
데	-5212
소	-5213
었	-5214
예	-5215
으	-5216
재	-5217
ʁ	-5218
Ы	-5219
ی	-5220
न	-5221
ี	-5222
ὸ	-5223
⅓	-5224
ァ	-5225
ゥ	-5226
ボ	-5227
ユ	-5228
ㄓ	-5229
ㅇ	-5230
且	-5231
冰	-5232
向	-5233
唐	-5234
嗎	-5235
堂	-5236
布	-5237
往	-5238
息	-5239
战	-5240
整	-5241
旅	-5242
毛	-5243
珠	-5244
蒙	-5245
较	-5246
遍	-5247
钟	-5248
館	-5249
같	-5250
까	-5251
러	-5252
뭐	-5253
산	-5254
워	-5255
할	-5256
÷	-5257
Ι	-5258
ở	-5259
Ἰ	-5260
ῖ	-5261
ῶ	-5262
ℝ	-5263
ほ	-5264
ゆ	-5265
入	-5266
功	-5267
务	-5268
印	-5269
史	-5270
哈	-5271
园	-5272
属	-5273
干	-5274
征	-5275
待	-5276
戦	-5277
抱	-5278
据	-5279
松	-5280
樣	-5281
泰	-5282
由	-5283
素	-5284
買	-5285
野	-5286
陽	-5287
飯	-5288
點	-5289
것	-5290
당	-5291
두	-5292
래	-5293
부	-5294
의	-5295
Ñ	-5296
Þ	-5297
ũ	-5298
צ	-5299
ศ	-5300
₂	-5301
ぐ	-5302
ザ	-5303
ヤ	-5304
争	-5305
單	-5306
存	-5307
官	-5308
将	-5309
巴	-5310
投	-5311
拜	-5312
换	-5313
显	-5314
晚	-5315
林	-5316
标	-5317
灸	-5318
炒	-5319
琴	-5320
當	-5321
筆	-5322
粉	-5323
联	-5324
脑	-5325
蝉	-5326
觀	-5327
角	-5328
趣	-5329
辣	-5330
进	-5331
連	-5332
错	-5333
韓	-5334
題	-5335
须	-5336
麗	-5337
교	-5338
떻	-5339
로	-5340
많	-5341
연	-5342
집	-5343
ג	-5344
،	-5345
ἱ	-5346
⁸	-5347
ば	-5348
ゅ	-5349
ギ	-5350
ゲ	-5351
ホ	-5352
ㄎ	-5353
ㅣ	-5354
丹	-5355
产	-5356
亲	-5357
任	-5358
党	-5359
升	-5360
咖	-5361
唯	-5362
商	-5363
她	-5364
孝	-5365
底	-5366
店	-5367
後	-5368
念	-5369
拿	-5370
按	-5371
曜	-5372
枝	-5373
武	-5374
湯	-5375
源	-5376
演	-5377
牙	-5378
狗	-5379
玩	-5380
田	-5381
疑	-5382
睡	-5383
确	-5384
祖	-5385
离	-5386
穴	-5387
舍	-5388
號	-5389
论	-5390
诞	-5391
迎	-5392
运	-5393
送	-5394
雄	-5395
零	-5396
骨	-5397
麻	-5398
귀	-5399
민	-5400
볼	-5401
치	-5402
토	-5403
행	-5404
ˆ	-5405
ט	-5406
े	-5407
ị	-5408
₁	-5409
ぎ	-5410
ノ	-5411
ㅂ	-5412
令	-5413
余	-5414
典	-5415
军	-5416
剛	-5417
啡	-5418
喝	-5419
壞	-5420
委	-5421
季	-5422
尊	-5423
尾	-5424
希	-5425
忙	-5426
慢	-5427
料	-5428
构	-5429
此	-5430
沒	-5431
派	-5432
渡	-5433
照	-5434
秋	-5435
称	-5436
笔	-5437
經	-5438
罗	-5439
群	-5440
育	-5441
舟	-5442
裡	-5443
記	-5444
該	-5445
调	-5446
资	-5447
钱	-5448
难	-5449
馬	-5450
鬼	-5451
과	-5452
늘	-5453
문	-5454
상	-5455
약	-5456
통	-5457
¹	-5458
Ê	-5459
і	-5460
द	-5461
ह	-5462
ु	-5463
ấ	-5464
ủ	-5465
む	-5466
ツ	-5467
久	-5468
乎	-5469
买	-5470
亮	-5471
休	-5472
內	-5473
具	-5474
列	-5475
副	-5476
剿	-5477
君	-5478
呀	-5479
呦	-5480
团	-5481
園	-5482
塔	-5483
塞	-5484
奶	-5485
寒	-5486
察	-5487
實	-5488
屋	-5489
川	-5490
忠	-5491
怪	-5492
撒	-5493
智	-5494
梦	-5495
歌	-5496
泳	-5497
混	-5498
班	-5499
番	-5500
笑	-5501
类	-5502
粿	-5503
组	-5504
習	-5505
臭	-5506
舞	-5507
藏	-5508
蜂	-5509
術	-5510
衣	-5511
計	-5512
轻	-5513
近	-5514
運	-5515
锦	-5516
队	-5517
限	-5518
隊	-5519
雀	-5520
鮮	-5521
관	-5522
난	-5523
네	-5524
달	-5525
때	-5526
럼	-5527
바	-5528
반	-5529
신	-5530
입	-5531
중	-5532
처	-5533
혼	-5534
ɹ	-5535
ؤ	-5536
अ	-5537
ग	-5538
ण	-5539
ด	-5540
์	-5541
ớ	-5542
ờ	-5543
ヘ	-5544
ㅍ	-5545
举	-5546
乙	-5547
乾	-5548
亚	-5549
便	-5550
兄	-5551
兩	-5552
则	-5553
剧	-5554
备	-5555
失	-5556
寂	-5557
寶	-5558
將	-5559
展	-5560
差	-5561
廣	-5562
强	-5563
录	-5564
急	-5565
懂	-5566
拉	-5567
故	-5568
旧	-5569
朗	-5570
极	-5571
津	-5572
浪	-5573
深	-5574
湖	-5575
烧	-5576
焼	-5577
熟	-5578
留	-5579
百	-5580
短	-5581
禅	-5582
穿	-5583
章	-5584
紅	-5585
练	-5586
署	-5587
翻	-5588
肚	-5589
蕉	-5590
蜜	-5591
論	-5592
變	-5593
计	-5594
诗	-5595
谈	-5596
越	-5597
转	-5598
述	-5599
除	-5600
领	-5601
녕	-5602
르	-5603
못	-5604
발	-5605
엽	-5606
ϵ	-5607
บ	-5608
ห	-5609
ฮ	-5610
ῇ	-5611
ῦ	-5612
げ	-5613
ゼ	-5614
ㅏ	-5615
丁	-5616
丸	-5617
亞	-5618
仁	-5619
份	-5620
传	-5621
兒	-5622
养	-5623
冷	-5624
刻	-5625
各	-5626
吾	-5627
善	-5628
嗨	-5629
図	-5630
尽	-5631
床	-5632
忘	-5633
愿	-5634
托	-5635
折	-5636
敬	-5637
替	-5638
杯	-5639
歉	-5640
独	-5641
皮	-5642
絡	-5643
绍	-5644
续	-5645
维	-5646
聽	-5647
腿	-5648
至	-5649
與	-5650
良	-5651
芝	-5652
落	-5653
虫	-5654
詩	-5655
識	-5656
证	-5657
识	-5658
译	-5659
象	-5660
跑	-5661
速	-5662
過	-5663
郊	-5664
関	-5665
阅	-5666
附	-5667
陈	-5668
陶	-5669
隨	-5670
顺	-5671
首	-5672
鼻	-5673
강	-5674
겁	-5675
공	-5676
님	-5677
등	-5678
디	-5679
땡	-5680
렵	-5681
른	-5682
밥	-5683
스	-5684
업	-5685
인	-5686
점	-5687
죠	-5688
즘	-5689
짜	-5690
했	-5691
Ζ	-5692
Щ	-5693
ք	-5694
भ	-5695
ล	-5696
Ấ	-5697
ữ	-5698
⅔	-5699
ヒ	-5700
ピ	-5701
ペ	-5702
モ	-5703
仙	-5704
价	-5705
众	-5706
伤	-5707
兵	-5708
办	-5709
半	-5710
厅	-5711
厨	-5712
取	-5713
吉	-5714
命	-5715
咒	-5716
嘔	-5717
域	-5718
境	-5719
处	-5720
层	-5721
幸	-5722
幾	-5723
序	-5724
张	-5725
應	-5726
挑	-5727
昂	-5728
村	-5729
树	-5730
桌	-5731
楚	-5732
永	-5733
池	-5734
波	-5735
满	-5736
灵	-5737
热	-5738
爸	-5739
猫	-5740
画	-5741
祝	-5742
竹	-5743
籍	-5744
网	-5745
置	-5746
职	-5747
背	-5748
芭	-5749
苏	-5750
著	-5751
蛋	-5752
蝦	-5753
警	-5754
讀	-5755
议	-5756
足	-5757
軍	-5758
载	-5759
远	-5760
逃	-5761
遊	-5762
醒	-5763
醬	-5764
雪	-5765
雷	-5766
颜	-5767
鸟	-5768
년	-5769
누	-5770
런	-5771
려	-5772
매	-5773
머	-5774
방	-5775
번	-5776
왔	-5777
유	-5778
줄	-5779
진	-5780
후	-5781
ɥ	-5782
˜	-5783
Ρ	-5784
Ё	-5785
ज	-5786
พ	-5787
ứ	-5788
ὶ	-5789
•	-5790
《	-5791
ヌ	-5792
井	-5793
亦	-5794
仔	-5795
供	-5796
假	-5797
划	-5798
创	-5799
區	-5800
厚	-5801
反	-5802
嘛	-5803
坡	-5804
妈	-5805
孩	-5806
宋	-5807
害	-5808
密	-5809
尝	-5810
岁	-5811
岩	-5812
巨	-5813
席	-5814
弹	-5815
怕	-5816
悲	-5817
態	-5818
承	-5819
抹	-5820
抽	-5821
探	-5822
推	-5823
搞	-5824
救	-5825
數	-5826
昌	-5827
晨	-5828
曼	-5829
杂	-5830
架	-5831
染	-5832
梅	-5833
概	-5834
模	-5835
求	-5836
污	-5837
滑	-5838
漫	-5839
濃	-5840
煎	-5841
版	-5842
略	-5843
皆	-5844
票	-5845
種	-5846
聚	-5847
肌	-5848
致	-5849
许	-5850
设	-5851
豬	-5852
贵	-5853
赵	-5854
选	-5855
遇	-5856
達	-5857
遥	-5858
邪	-5859
酥	-5860
静	-5861
韵	-5862
飲	-5863
餓	-5864
麥	-5865
鼓	-5866
龍	-5867
내	-5868
더	-5869
되	-5870
렇	-5871
봐	-5872
색	-5873
선	-5874
숙	-5875
슷	-5876
심	-5877
언	-5878
옛	-5879
읽	-5880
책	-5881
초	-5882
추	-5883
타	-5884
호	-5885
희	-5886
¬	-5887
ˢ	-5888
Γ	-5889
ֵ	-5890
ी	-5891
ो	-5892
เ	-5893
ῷ	-5894
ゴ	-5895
ソ	-5896
ㄲ	-5897
ㅈ	-5898
专	-5899
丝	-5900
乌	-5901
乱	-5902
亡	-5903
充	-5904
免	-5905
况	-5906
剑	-5907
剪	-5908
参	-5909
右	-5910
吸	-5911
唱	-5912
圆	-5913
坦	-5914
培	-5915
够	-5916
奥	-5917
室	-5918
宿	-5919
寫	-5920
导	-5921
左	-5922
強	-5923
彼	-5924
忍	-5925
恐	-5926
户	-5927
执	-5928
招	-5929
播	-5930
操	-5931
曾	-5932
柴	-5933
桥	-5934
楼	-5935
欧	-5936
歐	-5937
決	-5938
济	-5939
消	-5940
灯	-5941
炉	-5942
炸	-5943
燃	-5944
牌	-5945
牧	-5946
犯	-5947
瑞	-5948
痛	-5949
盘	-5950
眠	-5951
確	-5952
筋	-5953
筑	-5954
策	-5955
糕	-5956
级	-5957
纸	-5958
络	-5959
统	-5960
義	-5961
聞	-5962
肯	-5963
胖	-5964
艦	-5965
蘭	-5966
视	-5967
課	-5968
貝	-5969
质	-5970
赛	-5971
跡	-5972
追	-5973
退	-5974
适	-5975
進	-5976
郎	-5977
配	-5978
關	-5979
防	-5980
雞	-5981
難	-5982
霸	-5983
鞋	-5984
髮	-5985
默	-5986
鼠	-5987
밌	-5988
배	-5989
불	-5990
알	-5991
월	-5992
철	-5993
침	-5994
커	-5995
함	-5996
ņ	-5997
ų	-5998
ظ	-5999
ं	-6000
ल	-6001
ธ	-6002
ภ	-6003
ề	-6004
​	-6005
〈	-6006
ネ	-6007
ㄍ	-6008
ㅁ	-6009
严	-6010
付	-6011
仿	-6012
企	-6013
伏	-6014
伯	-6015
低	-6016
依	-6017
健	-6018
傳	-6019
僧	-6020
冒	-6021
击	-6022
即	-6023
却	-6024
卷	-6025
叉	-6026
叔	-6027
含	-6028
嘴	-6029
妻	-6030
姥	-6031
孫	-6032
寄	-6033
帰	-6034
廠	-6035
忆	-6036
怀	-6037
悉	-6038
慈	-6039
戰	-6040
护	-6041
报	-6042
择	-6043
搭	-6044
據	-6045
支	-6046
收	-6047
敏	-6048
於	-6049
旗	-6050
曹	-6051
未	-6052
权	-6053
杏	-6054
杨	-6055
桑	-6056
極	-6057
歩	-6058
汁	-6059
汽	-6060
沈	-6061
测	-6062
渣	-6063
溫	-6064
滋	-6065
潮	-6066
烈	-6067
烟	-6068
烦	-6069
状	-6070
狄	-6071
狼	-6072
獣	-6073
环	-6074
環	-6075
疼	-6076
监	-6077
睛	-6078
禪	-6079
简	-6080
節	-6081
簡	-6082
索	-6083
紹	-6084
絕	-6085
給	-6086
约	-6087
细	-6088
绝	-6089
继	-6090
缺	-6091
耳	-6092
聖	-6093
聯	-6094
脚	-6095
芳	-6096
莫	-6097
虎	-6098
虞	-6099
融	-6100
衛	-6101
訴	-6102
詛	-6103
資	-6104
質	-6105
迪	-6106
還	-6107
邦	-6108
邮	-6109
钢	-6110
門	-6111
闻	-6112
陆	-6113
险	-6114
隆	-6115
露	-6116
風	-6117
饮	-6118
鳥	-6119
鹊	-6120
麦	-6121
갈	-6122
감	-6123
건	-6124
걸	-6125
단	-6126
똑	-6127
랑	-6128
모	-6129
싸	-6130
쓰	-6131
야	-6132
외	-6133
트	-6134
파	-6135
표	-6136
피	-6137
형	-6138
º	-6139
ů	-6140
ʏ	-6141
ъ	-6142
ף	-6143
ब	-6144
ฟ	-6145
โ	-6146
ầ	-6147
ὰ	-6148
ῆ	-6149
⁷	-6150
₽	-6151
ぱ	-6152
ㅡ	-6153
㉤	-6154
乃	-6155
乏	-6156
仪	-6157
俗	-6158
倫	-6159
值	-6160
偏	-6161
停	-6162
冠	-6163
凱	-6164
刀	-6165
刑	-6166
別	-6167
刷	-6168
勘	-6169
匈	-6170
咱	-6171
哀	-6172
哇	-6173
員	-6174
唷	-6175
嘅	-6176
困	-6177
團	-6178
块	-6179
場	-6180
夏	-6181
宁	-6182
宅	-6183
寨	-6184
寸	-6185
寻	-6186
尤	-6187
居	-6188
岛	-6189
島	-6190
座	-6191
御	-6192
恋	-6193
恶	-6194
惜	-6195
慧	-6196
拔	-6197
括	-6198
摔	-6199
摸	-6200
敢	-6201
断	-6202
景	-6203
曲	-6204
末	-6205
束	-6206
柜	-6207
核	-6208
棒	-6209
植	-6210
榮	-6211
歇	-6212
殿	-6213
気	-6214
汇	-6215
浙	-6216
涼	-6217
溜	-6218
濟	-6219
燕	-6220
爷	-6221
猜	-6222
甘	-6223
疆	-6224
疾	-6225
病	-6226
登	-6227
眾	-6228
码	-6229
破	-6230
禁	-6231
秒	-6232
租	-6233
稱	-6234
箱	-6235
粒	-6236
約	-6237
編	-6238
總	-6239
编	-6240
缘	-6241
罪	-6242
胎	-6243
脉	-6244
興	-6245
苦	-6246
荣	-6247
药	-6248
荷	-6249
营	-6250
蓮	-6251
蘋	-6252
蝶	-6253
衫	-6254
裔	-6255
視	-6256
评	-6257
诺	-6258
貌	-6259
費	-6260
賊	-6261
賞	-6262
责	-6263
超	-6264
辦	-6265
迷	-6266
逆	-6267
違	-6268
選	-6269
酿	-6270
鍾	-6271
降	-6272
陷	-6273
震	-6274
順	-6275
顶	-6276
顾	-6277
餃	-6278
饺	-6279
鲁	-6280
齐	-6281
경	-6282
계	-6283
글	-6284
께	-6285
끝	-6286
끼	-6287
름	-6288
밤	-6289
병	-6290
빠	-6291
샀	-6292
새	-6293
악	-6294
양	-6295
작	-6296
적	-6297
차	-6298
체	-6299
촌	-6300
프	-6301
ĝ	-6302
į	-6303
Ť	-6304
ť	-6305
ƒ	-6306
ʂ	-6307
ʹ	-6308
̅	-6309
־	-6310
ך	-6311
ک	-6312
उ	-6313
ख	-6314
श	-6315
ू	-6316
ข	-6317
ป	-6318
ะ	-6319
ุ	-6320
ụ	-6321
ỷ	-6322
ὲ	-6323
ὴ	-6324
〉	-6325
ず	-6326
ぜ	-6327
ぞ	-6328
ひ	-6329
び	-6330
ぶ	-6331
ポ	-6332
ㄏ	-6333
ㅓ	-6334
ㅗ	-6335
丢	-6336
並	-6337
串	-6338
乘	-6339
享	-6340
仅	-6341
伊	-6342
係	-6343
優	-6344
兔	-6345
农	-6346
冲	-6347
决	-6348
凌	-6349
凡	-6350
凯	-6351
剩	-6352
創	-6353
勾	-6354
协	-6355
卑	-6356
協	-6357
危	-6358
哭	-6359
唤	-6360
啃	-6361
営	-6362
嗒	-6363
固	-6364
圓	-6365
坚	-6366
奉	-6367
妃	-6368
妖	-6369
孙	-6370
孤	-6371
守	-6372
実	-6373
宣	-6374
宽	-6375
寞	-6376
封	-6377
射	-6378
尹	-6379
尺	-6380
屬	-6381
峰	-6382
巧	-6383
帅	-6384
帶	-6385
幕	-6386
廷	-6387
弥	-6388
弱	-6389
復	-6390
忽	-6391
怖	-6392
恭	-6393
惊	-6394
惠	-6395
戏	-6396
戸	-6397
抗	-6398
拟	-6399
拳	-6400
挂	-6401
掃	-6402
授	-6403
掉	-6404
搬	-6405
撞	-6406
攻	-6407
既	-6408
旨	-6409
昆	-6410
暴	-6411
朵	-6412
械	-6413
樂	-6414
標	-6415
權	-6416
歡	-6417
止	-6418
歳	-6419
殊	-6420
毎	-6421
毒	-6422
毫	-6423
氏	-6424
沟	-6425
泽	-6426
洞	-6427
淘	-6428
済	-6429
渠	-6430
温	-6431
漂	-6432
漏	-6433
炎	-6434
炮	-6435
熊	-6436
爪	-6437
猪	-6438
獸	-6439
瓶	-6440
甜	-6441
產	-6442
産	-6443
甲	-6444
申	-6445
畅	-6446
畏	-6447
疏	-6448
盗	-6449
碗	-6450
碰	-6451
祥	-6452
禾	-6453
稳	-6454
稻	-6455
突	-6456
窗	-6457
端	-6458
笠	-6459
糖	-6460
終	-6461
組	-6462
絲	-6463
綠	-6464
緒	-6465
织	-6466
终	-6467
缩	-6468
耕	-6469
聊	-6470
聲	-6471
股	-6472
肥	-6473
胡	-6474
脹	-6475
腫	-6476
膏	-6477
舒	-6478
若	-6479
莎	-6480
萨	-6481
蒟	-6482
蒸	-6483
薩	-6484
虑	-6485
袋	-6486
複	-6487
覚	-6488
覺	-6489
許	-6490
訳	-6491
認	-6492
誰	-6493
謝	-6494
證	-6495
误	-6496
诸	-6497
豪	-6498
貓	-6499
财	-6500
贤	-6501
账	-6502
费	-6503
赶	-6504
踏	-6505
躊	-6506
透	-6507
郑	-6508
銀	-6509
錄	-6510
錯	-6511
鎖	-6512
银	-6513
销	-6514
锅	-6515
键	-6516
镜	-6517
陀	-6518
陸	-6519
随	-6520
雕	-6521
靠	-6522
須	-6523
预	-6524
験	-6525
驾	-6526
骗	-6527
鴨	-6528
鵝	-6529
鸣	-6530
鹵	-6531
鹹	-6532
麵	-6533
각	-6534
개	-6535
길	-6536
꽃	-6537
납	-6538
녁	-6539
느	-6540
따	-6541
란	-6542
루	-6543
맛	-6544
밑	-6545
봅	-6546
살	-6547
송	-6548
왜	-6549
용	-6550
울	-6551
위	-6552
좀	-6553
찌	-6554
찾	-6555
천	-6556
칩	-6557
크	-6558
험	-6559
환	-6560
회	-6561
¤	-6562
Ô	-6563
Ý	-6564
ǚ	-6565
ʉ	-6566
Ν	-6567
ϊ	-6568
ђ	-6569
ғ	-6570
ץ	-6571
؟	-6572
ڵ	-6573
ष	-6574
ắ	-6575
ừ	-6576
ử	-6577
ἁ	-6578
ἡ	-6579
ὄ	-6580
₃	-6581
⅛	-6582
⊆	-6583
⊗	-6584
ㄚ	-6585
丛	-6586
亨	-6587
亭	-6588
仕	-6589
伦	-6590
佩	-6591
侯	-6592
俯	-6593
倒	-6594
借	-6595
偶	-6596
備	-6597
傷	-6598
僕	-6599
兼	-6600
凶	-6601
切	-6602
刺	-6603
劃	-6604
勉	-6605
務	-6606
匙	-6607
匹	-6608
卦	-6609
卧	-6610
卸	-6611
卻	-6612
厕	-6613
县	-6614
叙	-6615
召	-6616
叶	-6617
吐	-6618
咬	-6619
售	-6620
嘲	-6621
噁	-6622
围	-6623
圖	-6624
址	-6625
坎	-6626
坟	-6627
坷	-6628
堅	-6629
堆	-6630
堡	-6631
堪	-6632
墓	-6633
增	-6634
壮	-6635
変	-6636
奈	-6637
套	-6638
妇	-6639
妮	-6640
姆	-6641
姜	-6642
威	-6643
媽	-6644
嫁	-6645
嫌	-6646
孟	-6647
宜	-6648
审	-6649
宫	-6650
宰	-6651
宾	-6652
寬	-6653
專	-6654
導	-6655
尿	-6656
屏	-6657
岗	-6658
帕	-6659
幻	-6660
庭	-6661
延	-6662
弘	-6663
張	-6664
怡	-6665
恒	-6666
恕	-6667
悟	-6668
戒	-6669
戶	-6670
批	-6671
拒	-6672
拥	-6673
挺	-6674
捕	-6675
捲	-6676
掌	-6677
插	-6678
握	-6679
撳	-6680
擅	-6681
擇	-6682
敗	-6683
施	-6684
旦	-6685
晋	-6686
朽	-6687
杀	-6688
板	-6689
析	-6690
查	-6691
检	-6692
森	-6693
楽	-6694
構	-6695
欠	-6696
款	-6697
歧	-6698
汗	-6699
沉	-6700
沌	-6701
泥	-6702
渴	-6703
滨	-6704
滿	-6705
澡	-6706
澤	-6707
灣	-6708
烂	-6709
烙	-6710
焦	-6711
熱	-6712
燈	-6713
燒	-6714
爬	-6715
爵	-6716
爾	-6717
牡	-6718
獲	-6719
率	-6720
玛	-6721
瑋	-6722
甚	-6723
畫	-6724
痴	-6725
益	-6726
眉	-6727
秀	-6728
移	-6729
稍	-6730
穷	-6731
签	-6732
箭	-6733
箸	-6734
粪	-6735
粱	-6736
糊	-6737
糠	-6738
細	-6739
統	-6740
維	-6741
緊	-6742
練	-6743
纪	-6744
线	-6745
绿	-6746
羅	-6747
翔	-6748
肤	-6749
胀	-6750
胃	-6751
胆	-6752
胜	-6753
胞	-6754
胳	-6755
脆	-6756
脐	-6757
脩	-6758
脱	-6759
脸	-6760
腦	-6761
腳	-6762
腾	-6763
膊	-6764
膨	-6765
艺	-6766
芥	-6767
芬	-6768
芽	-6769
苍	-6770
范	-6771
茄	-6772
菇	-6773
菩	-6774
葉	-6775
葱	-6776
蔡	-6777
薄	-6778
虽	-6779
蚁	-6780
蜍	-6781
补	-6782
裝	-6783
规	-6784
訂	-6785
設	-6786
詢	-6787
試	-6788
詳	-6789
調	-6790
談	-6791
請	-6792
諮	-6793
諸	-6794
諾	-6795
議	-6796
護	-6797
讓	-6798
询	-6799
谋	-6800
谎	-6801
谷	-6802
貴	-6803
賽	-6804
贈	-6805
贝	-6806
负	-6807
败	-6808
贸	-6809
赢	-6810
跳	-6811
践	-6812
較	-6813
轉	-6814
辈	-6815
辞	-6816
返	-6817
迹	-6818
递	-6819
週	-6820
遅	-6821
酸	-6822
鉛	-6823
錢	-6824
鐘	-6825
钥	-6826
铁	-6827
閉	-6828
闹	-6829
阎	-6830
阴	-6831
階	-6832
障	-6833
靈	-6834
預	-6835
项	-6836
飙	-6837
餅	-6838
養	-6839
饰	-6840
魔	-6841
鳳	-6842
鵡	-6843
鸳	-6844
鸿	-6845
鹰	-6846
黨	-6847
齒	-6848
겠	-6849
겨	-6850
곤	-6851
김	-6852
깔	-6853
노	-6854
눈	-6855
론	-6856
릉	-6857
막	-6858
뭘	-6859
박	-6860
버	-6861
베	-6862
복	-6863
빔	-6864
성	-6865
숭	-6866
실	-6867
십	-6868
않	-6869
얘	-6870
얼	-6871
역	-6872
웠	-6873
잘	-6874
족	-6875
착	-6876
코	-6877
큽	-6878
투	-6879
티	-6880
편	-6881
필	-6882
향	-6883
휴	-6884
히	-6885
Ã	-6886
þ	-6887
ļ	-6888
ɫ	-6889
ɱ	-6890
˹	-6891
˺	-6892
̃	-6893
ֲ	-6894
ٰ	-6895
ھ	-6896
इ	-6897
ए	-6898
ञ	-6899
ड	-6900
फ	-6901
ช	-6902
ึ	-6903
ื	-6904
แ	-6905
ằ	-6906
ặ	-6907
ẻ	-6908
ể	-6909
ỏ	-6910
ự	-6911
ỳ	-6912
ὼ	-6913
₄	-6914
ぴ	-6915
ぷ	-6916
ぼ	-6917
ゾ	-6918
ヨ	-6919
ㄉ	-6920
ㄛ	-6921
ㄜ	-6922
ㄟ	-6923
ㄣ	-6924
ㅌ	-6925
ㅎ	-6926
ㅜ	-6927
㎡	-6928
㗎	-6929
丈	-6930
临	-6931
丽	-6932
乗	-6933
乜	-6934
亏	-6935
亜	-6936
亿	-6937
仍	-6938
仰	-6939
优	-6940
伙	-6941
伝	-6942
伟	-6943
伸	-6944
佢	-6945
佳	-6946
侵	-6947
侶	-6948
促	-6949
俊	-6950
俺	-6951
倔	-6952
债	-6953
倾	-6954
偷	-6955
僚	-6956
儀	-6957
儒	-6958
儲	-6959
允	-6960
兎	-6961
兹	-6962
册	-6963
冬	-6964
凍	-6965
凤	-6966
処	-6967
凸	-6968
凹	-6969
刘	-6970
判	-6971
則	-6972
削	-6973
劇	-6974
劝	-6975
劲	-6976
劳	-6977
勃	-6978
勇	-6979
勝	-6980
募	-6981
匡	-6982
匪	-6983
厂	-6984
历	-6985
压	-6986
厌	-6987
厘	-6988
叩	-6989
启	-6990
吹	-6991
呆	-6992
呐	-6993
呱	-6994
呼	-6995
咗	-6996
咪	-6997
哑	-6998
哲	-6999
哼	-7000
啟	-7001
啥	-7002
喂	-7003
嘈	-7004
嘉	-7005
嘎	-7006
嘟	-7007
嘢	-7008
嘰	-7009
噗	-7010
嚴	-7011
囊	-7012
圈	-7013
圍	-7014
坑	-7015
坞	-7016
坤	-7017
塊	-7018
填	-7019
墨	-7020
夜	-7021
夢	-7022
奔	-7023
奖	-7024
妨	-7025
姚	-7026
姨	-7027
娇	-7028
娘	-7029
婦	-7030
媒	-7031
嬢	-7032
嬰	-7033
宠	-7034
宵	-7035
寡	-7036
寧	-7037
尚	-7038
尬	-7039
尴	-7040
尸	-7041
届	-7042
崎	-7043
巡	-7044
巻	-7045
币	-7046
帳	-7047
幅	-7048
幫	-7049
幹	-7050
庄	-7051
庆	-7052
库	-7053
庙	-7054
庫	-7055
廉	-7056
弄	-7057
弓	-7058
弾	-7059
彦	-7060
彰	-7061
徐	-7062
從	-7063
忌	-7064
怨	-7065
恨	-7066
恵	-7067
悠	-7068
愤	-7069
慣	-7070
憾	-7071
懲	-7072
戀	-7073
戲	-7074
扣	-7075
抓	-7076
拍	-7077
拯	-7078
捉	-7079
捐	-7080
掰	-7081
描	-7082
揭	-7083
摄	-7084
摇	-7085
撑	-7086
撮	-7087
擊	-7088
斜	-7089
旁	-7090
旋	-7091
晓	-7092
暖	-7093
朔	-7094
材	-7095
杜	-7096
杰	-7097
枕	-7098
枯	-7099
柔	-7100
栏	-7101
桂	-7102
桃	-7103
桔	-7104
梁	-7105
條	-7106
梨	-7107
梯	-7108
棄	-7109
棋	-7110
榻	-7111
槍	-7112
様	-7113
橘	-7114
欸	-7115
歷	-7116
殘	-7117
殺	-7118
毀	-7119
氛	-7120
汐	-7121
汤	-7122
汶	-7123
沿	-7124
泡	-7125
浅	-7126
浓	-7127
浦	-7128
涂	-7129
润	-7130
淆	-7131
淡	-7132
湘	-7133
滅	-7134
漱	-7135
漲	-7136
漿	-7137
潜	-7138
激	-7139
濁	-7140
瀬	-7141
烏	-7142
烤	-7143
煩	-7144
煽	-7145
熙	-7146
營	-7147
爭	-7148
爹	-7149
狀	-7150
狱	-7151
献	-7152
獎	-7153
玻	-7154
璃	-7155
璇	-7156
瓜	-7157
疗	-7158
疫	-7159
発	-7160
盛	-7161
盡	-7162
祭	-7163
禧	-7164
秘	-7165
积	-7166
稀	-7167
穂	-7168
窝	-7169
笨	-7170
笼	-7171
筒	-7172
筹	-7173
篷	-7174
簿	-7175
粥	-7176
粮	-7177
粵	-7178
粹	-7179
糞	-7180
紫	-7181
続	-7182
緩	-7183
縱	-7184
繪	-7185
繼	-7186
續	-7187
缆	-7188
罢	-7189
羞	-7190
翘	-7191
耀	-7192
職	-7193
肠	-7194
肩	-7195
腕	-7196
腰	-7197
腸	-7198
腻	-7199
膀	-7200
臉	-7201
臣	-7202
舜	-7203
舰	-7204
艙	-7205
艳	-7206
艾	-7207
芋	-7208
苹	-7209
荐	-7210
莱	-7211
萝	-7212
萬	-7213
蓄	-7214
蕾	-7215
藥	-7216
蚂	-7217
蜿	-7218
蠢	-7219
袭	-7220
裏	-7221
製	-7222
誕	-7223
諷	-7224
譯	-7225
训	-7226
讽	-7227
诚	-7228
谐	-7229
豚	-7230
財	-7231
賴	-7232
贩	-7233
贫	-7234
赚	-7235
赞	-7236
踢	-7237
蹲	-7238
輪	-7239
轮	-7240
辑	-7241
输	-7242
辛	-7243
農	-7244
辽	-7245
迁	-7246
逐	-7247
途	-7248
逗	-7249
逛	-7250
逮	-7251
逸	-7252
逼	-7253
遠	-7254
適	-7255
遮	-7256
邀	-7257
邊	-7258
酷	-7259
醉	-7260
醫	-7261
采	-7262
释	-7263
針	-7264
鋒	-7265
鍋	-7266
鎮	-7267
鑽	-7268
铃	-7269
镇	-7270
閣	-7271
閱	-7272
陣	-7273
陵	-7274
隔	-7275
際	-7276
隧	-7277
雇	-7278
雙	-7279
靜	-7280
韩	-7281
響	-7282
頂	-7283
額	-7284
页	-7285
顿	-7286
频	-7287
飛	-7288
飾	-7289
駅	-7290
驗	-7291
驶	-7292
验	-7293
骑	-7294
鯊	-7295
鸭	-7296
黎	-7297
齁	-7298
골	-7299
곱	-7300
광	-7301
끔	-7302
낙	-7303
냥	-7304
넣	-7305
늦	-7306
닙	-7307
답	-7308
돼	-7309
둑	-7310
드	-7311
딱	-7312
떤	-7313
떨	-7314
또	-7315
뚱	-7316
뜻	-7317
랍	-7318
레	-7319
릅	-7320
릴	-7321
림	-7322
맥	-7323
명	-7324
몇	-7325
받	-7326
벌	-7327
볶	-7328
본	-7329
봤	-7330
빛	-7331
빨	-7332
빵	-7333
뽀	-7334
뿅	-7335
셔	-7336
속	-7337
손	-7338
술	-7339
쉽	-7340
억	-7341
엄	-7342
염	-7343
육	-7344
윤	-7345
응	-7346
익	-7347
임	-7348
잔	-7349
잡	-7350
졌	-7351
종	-7352
죽	-7353
줘	-7354
즈	-7355
즐	-7356
짝	-7357
쩌	-7358
쪼	-7359
찍	-7360
쳐	-7361
춥	-7362
층	-7363
쿠	-7364
큰	-7365
키	-7366
터	-7367
털	-7368
페	-7369
포	-7370
품	-7371
햇	-7372
허	-7373
ª	-7374
Ć	-7375
Ğ	-7376
ĩ	-7377
ŏ	-7378
Ř	-7379
Ū	-7380
ŭ	-7381
ŵ	-7382
Ź	-7383
ɨ	-7384
ɲ	-7385
ɷ	-7386
̄	-7387
Έ	-7388
І	-7389
پ	-7390
ڈ	-7391
ڤ	-7392
ڷ	-7393
ہ	-7394
ے	-7395
ۖ	-7396
ओ	-7397
ट	-7398
थ	-7399
ध	-7400
ृ	-7401
ौ	-7402
ॐ	-7403
ญ	-7404
ณ	-7405
ำ	-7406
ู	-7407
ฺ	-7408
ឡ	-7409
ṉ	-7410
Ṡ	-7411
ẫ	-7412
ẳ	-7413
ẹ	-7414
ẽ	-7415
ỗ	-7416
ợ	-7417
ἶ	-7418
ὑ	-7419
⁈	-7420
⁺	-7421
₩	-7422
℃	-7423
⅜	-7424
⅝	-7425
∀	-7426
≊	-7427
♪	-7428
々	-7429
ぅ	-7430
ふ	-7431
ㄒ	-7432
ㅅ	-7433
㋅	-7434
丑	-7435
丧	-7436
丰	-7437
乒	-7438
乓	-7439
乔	-7440
乖	-7441
互	-7442
亥	-7443
仆	-7444
仓	-7445
仲	-7446
估	-7447
伴	-7448
伶	-7449
伺	-7450
伽	-7451
佐	-7452
佑	-7453
佬	-7454
俄	-7455
俐	-7456
俩	-7457
俱	-7458
俳	-7459
値	-7460
倪	-7461
储	-7462
傲	-7463
傻	-7464
僅	-7465
働	-7466
僱	-7467
價	-7468
兮	-7469
円	-7470
冊	-7471
冻	-7472
净	-7473
减	-7474
券	-7475
剔	-7476
励	-7477
労	-7478
势	-7479
勢	-7480
勤	-7481
勵	-7482
勺	-7483
匆	-7484
匕	-7485
卒	-7486
単	-7487
卜	-7488
卢	-7489
厉	-7490
厳	-7491
叛	-7492
叭	-7493
吞	-7494
吵	-7495
吻	-7496
呕	-7497
呜	-7498
咁	-7499
咎	-7500
咦	-7501
咸	-7502
咻	-7503
哄	-7504
响	-7505
唔	-7506
啲	-7507
喉	-7508
喊	-7509
喎	-7510
喔	-7511
喧	-7512
喱	-7513
喷	-7514
喻	-7515
喽	-7516
嗚	-7517
嘿	-7518
噴	-7519
嚟	-7520
嚷	-7521
圳	-7522
圾	-7523
坏	-7524
垃	-7525
埃	-7526
埋	-7527
堕	-7528
堯	-7529
堵	-7530
塑	-7531
壁	-7532
壤	-7533
壯	-7534
壳	-7535
壺	-7536
夕	-7537
夙	-7538
夠	-7539
夸	-7540
夹	-7541
夾	-7542
奎	-7543
奧	-7544
奪	-7545
奴	-7546
奸	-7547
妒	-7548
妝	-7549
姫	-7550
姻	-7551
媚	-7552
媳	-7553
嫂	-7554
嫉	-7555
嫔	-7556
宏	-7557
宪	-7558
宴	-7559
寵	-7560
寿	-7561
尖	-7562
屈	-7563
屠	-7564
層	-7565
履	-7566
岐	-7567
岭	-7568
岸	-7569
崇	-7570
崔	-7571
崩	-7572
嶼	-7573
巢	-7574
巫	-7575
巾	-7576
帯	-7577
帽	-7578
幌	-7579
庸	-7580
廊	-7581
廓	-7582
廚	-7583
廳	-7584
异	-7585
弃	-7586
弦	-7587
弯	-7588
彌	-7589
归	-7590
彙	-7591
役	-7592
彻	-7593
従	-7594
徳	-7595
徵	-7596
徹	-7597
怅	-7598
恆	-7599
恥	-7600
恼	-7601
悔	-7602
悖	-7603
悚	-7604
悪	-7605
悬	-7606
悸	-7607
惆	-7608
惑	-7609
愉	-7610
愧	-7611
慎	-7612
慕	-7613
慮	-7614
憚	-7615
憲	-7616
憶	-7617
懈	-7618
懼	-7619
戈	-7620
扇	-7621
扎	-7622
扩	-7623
扭	-7624
扰	-7625
扳	-7626
抄	-7627
抖	-7628
抜	-7629
披	-7630
拐	-7631
拖	-7632
拝	-7633
拦	-7634
拾	-7635
挖	-7636
挣	-7637
捧	-7638
掘	-7639
採	-7640
控	-7641
揚	-7642
揣	-7643
揽	-7644
損	-7645
搓	-7646
搜	-7647
携	-7648
摁	-7649
摆	-7650
摘	-7651
摧	-7652
撃	-7653
撇	-7654
撤	-7655
撫	-7656
撬	-7657
撻	-7658
擋	-7659
擔	-7660
擦	-7661
擬	-7662
攀	-7663
攜	-7664
攝	-7665
效	-7666
敦	-7667
敷	-7668
斋	-7669
斑	-7670
斗	-7671
斷	-7672
旱	-7673
昇	-7674
映	-7675
昧	-7676
昨	-7677
晃	-7678
晩	-7679
晶	-7680
暂	-7681
暫	-7682
曆	-7683
曬	-7684
杆	-7685
杠	-7686
杭	-7687
枪	-7688
柱	-7689
栗	-7690
桓	-7691
梗	-7692
梭	-7693
梵	-7694
棵	-7695
楠	-7696
槽	-7697
樓	-7698
樹	-7699
橄	-7700
橡	-7701
檢	-7702
櫃	-7703
櫻	-7704
欄	-7705
欖	-7706
欣	-7707
欲	-7708
歪	-7709
歴	-7710
毅	-7711
氧	-7712
汕	-7713
汝	-7714
汹	-7715
沖	-7716
沼	-7717
況	-7718
泉	-7719
泪	-7720
泼	-7721
洁	-7722
洗	-7723
洽	-7724
浑	-7725
浩	-7726
浴	-7727
涙	-7728
液	-7729
涵	-7730
淇	-7731
淋	-7732
淮	-7733
渉	-7734
測	-7735
湿	-7736
溃	-7737
溝	-7738
溪	-7739
滚	-7740
滩	-7741
滾	-7742
漆	-7743
漠	-7744
潘	-7745
潛	-7746
澎	-7747
濫	-7748
瀏	-7749
灭	-7750
災	-7751
灾	-7752
灿	-7753
炭	-7754
炼	-7755
烘	-7756
烛	-7757
烫	-7758
煤	-7759
熏	-7760
燥	-7761
爆	-7762
爛	-7763
爽	-7764
牟	-7765
牢	-7766
牲	-7767
牺	-7768
犬	-7769
犹	-7770
狂	-7771
狡	-7772
狩	-7773
猛	-7774
猾	-7775
獄	-7776
獨	-7777
玄	-7778
玫	-7779
玲	-7780
琦	-7781
琪	-7782
瑰	-7783
瑶	-7784
璋	-7785
瓦	-7786
畜	-7787
疲	-7788
症	-7789
痠	-7790
瘋	-7791
癖	-7792
盆	-7793
盐	-7794
盒	-7795
盖	-7796
県	-7797
眷	-7798
瞎	-7799
瞥	-7800
瞪	-7801
矛	-7802
砂	-7803
砖	-7804
础	-7805
硝	-7806
硬	-7807
磕	-7808
祈	-7809
禱	-7810
禽	-7811
稣	-7812
稽	-7813
積	-7814
穩	-7815
窍	-7816
窑	-7817
竟	-7818
童	-7819
竭	-7820
競	-7821
笛	-7822
筝	-7823
筷	-7824
範	-7825
築	-7826
籠	-7827
粗	-7828
粽	-7829
糸	-7830
紀	-7831
納	-7832
紐	-7833
紙	-7834
紧	-7835
綜	-7836
綺	-7837
縮	-7838
繁	-7839
繰	-7840
纯	-7841
纳	-7842
纽	-7843
绑	-7844
绕	-7845
绪	-7846
绰	-7847
缀	-7848
缓	-7849
缴	-7850
缸	-7851
羔	-7852
翁	-7853
翅	-7854
翠	-7855
翡	-7856
翰	-7857
耐	-7858
耗	-7859
耶	-7860
耻	-7861
聘	-7862
聪	-7863
聴	-7864
肆	-7865
肪	-7866
胶	-7867
脂	-7868
脈	-7869
脏	-7870
脳	-7871
脾	-7872
腔	-7873
腩	-7874
腹	-7875
臂	-7876
臥	-7877
臺	-7878
舉	-7879
舊	-7880
舎	-7881
舔	-7882
艇	-7883
艘	-7884
芦	-7885
芹	-7886
苔	-7887
茂	-7888
荒	-7889
获	-7890
菱	-7891
萄	-7892
萊	-7893
萍	-7894
葡	-7895
葫	-7896
葬	-7897
葵	-7898
蓋	-7899
蓝	-7900
蔗	-7901
薪	-7902
薬	-7903
薯	-7904
藍	-7905
藤	-7906
蘇	-7907
蘿	-7908
處	-7909
虛	-7910
虹	-7911
蚊	-7912
蛀	-7913
蛇	-7914
蛮	-7915
蜆	-7916
蜡	-7917
蜢	-7918
蜻	-7919
蠻	-7920
衆	-7921
袁	-7922
袍	-7923
装	-7924
裕	-7925
補	-7926
襄	-7927
覆	-7928
規	-7929
覧	-7930
親	-7931
観	-7932
览	-7933
訊	-7934
訝	-7935
訪	-7936
詐	-7937
誌	-7938
誒	-7939
誓	-7940
誠	-7941
誤	-7942
誦	-7943
誹	-7944
謂	-7945
謊	-7946
謗	-7947
譜	-7948
譽	-7949
讚	-7950
讯	-7951
讶	-7952
讼	-7953
访	-7954
诅	-7955
诊	-7956
详	-7957
谅	-7958
谊	-7959
谜	-7960
谨	-7961
谱	-7962
谴	-7963
豉	-7964
豹	-7965
貨	-7966
責	-7967
貰	-7968
貼	-7969
賢	-7970
賣	-7971
賤	-7972
賬	-7973
賺	-7974
贊	-7975
贏	-7976
贓	-7977
贡	-7978
购	-7979
贴	-7980
贼	-7981
赏	-7982
赐	-7983
赖	-7984
赤	-7985
赫	-7986
趕	-7987
跤	-7988
跨	-7989
踐	-7990
蹤	-7991
躲	-7992
躺	-7993
軌	-7994
軟	-7995
