<pad>	0
<unk>	0
<s>	0
</s>	0
▁t	-0
▁th	-1
▁a	-2
in	-3
re	-4
▁the	-5
▁w	-6
▁o	-7
▁s	-8
at	-9
er	-10
ou	-11
nd	-12
it	-13
▁c	-14
is	-15
on	-16
▁b	-17
ing	-18
▁h	-19
en	-20
▁to	-21
▁m	-22
▁f	-23
an	-24
es	-25
▁p	-26
or	-27
▁I	-28
▁d	-29
al	-30
▁of	-31
▁l	-32
ed	-33
▁y	-34
▁in	-35
▁and	-36
ar	-37
▁you	-38
▁g	-39
om	-40
as	-41
▁that	-42
ic	-43
▁u	-44
ll	-45
ve	-46
▁n	-47
ow	-48
ion	-49
le	-50
et	-51
st	-52
▁A	-53
ly	-54
▁is	-55
▁it	-56
▁e	-57
▁we	-58
▁T	-59
▁wh	-60
ut	-61
ot	-62
▁be	-63
▁re	-64
▁S	-65
se	-66
ay	-67
▁on	-68
ent	-69
ct	-70
▁Th	-71
▁ha	-72
ke	-73
ig	-74
id	-75
ver	-76
ro	-77
▁for	-78
im	-79
ch	-80
▁st	-81
ere	-82
▁this	-83
ld	-84
am	-85
▁k	-86
ur	-87
▁li	-88
ce	-89
▁W	-90
ith	-91
▁go	-92
▁uh	-93
▁And	-94
if	-95
ation	-96
ad	-97
ir	-98
▁an	-99
▁have	-100
th	-101
▁with	-102
▁as	-103
▁was	-104
ht	-105
▁do	-106
▁are	-107
▁B	-108
ally	-109
ust	-110
▁So	-111
▁r	-112
▁se	-113
▁like	-114
▁C	-115
▁so	-116
od	-117
▁j	-118
▁kn	-119
ight	-120
▁can	-121
▁he	-122
op	-123
▁know	-124
▁The	-125
▁or	-126
ome	-127
ol	-128
ill	-129
▁M	-130
ant	-131
▁U	-132
ck	-133
il	-134
▁me	-135
▁not	-136
ter	-137
▁at	-138
▁sh	-139
▁ab	-140
▁H	-141
▁Y	-142
ra	-143
▁ne	-144
ul	-145
ers	-146
▁they	-147
▁con	-148
ge	-149
ate	-150
ould	-151
ore	-152
▁de	-153
▁pro	-154
out	-155
▁O	-156
▁just	-157
▁com	-158
▁fr	-159
▁al	-160
qu	-161
pp	-162
▁ex	-163
est	-164
▁what	-165
us	-166
ess	-167
▁P	-168
▁ch	-169
▁but	-170
▁N	-171
▁su	-172
▁lo	-173
▁there	-174
ist	-175
art	-176
pe	-177
▁all	-178
ain	-179
au	-180
▁your	-181
▁v	-182
ab	-183
very	-184
ive	-185
um	-186
▁L	-187
nt	-188
▁about	-189
▁wor	-190
▁one	-191
ok	-192
▁D	-193
▁from	-194
ri	-195
un	-196
ity	-197
ea	-198
ort	-199
ink	-200
em	-201
▁Uh	-202
▁It	-203
▁if	-204
ind	-205
▁my	-206
el	-207
▁get	-208
▁R	-209
all	-210
ment	-211
▁out	-212
ause	-213
▁by	-214
os	-215
and	-216
rou	-217
res	-218
▁up	-219
▁E	-220
▁some	-221
▁You	-222
▁int	-223
▁us	-224
▁We	-225
▁pl	-226
ie	-227
▁don	-228
ich	-229
ake	-230
ies	-231
▁bec	-232
▁think	-233
ack	-234
▁here	-235
ard	-236
ear	-237
▁going	-238
ect	-239
ame	-240
ak	-241
ide	-242
▁tr	-243
her	-244
▁tim	-245
ast	-246
▁Wh	-247
▁thing	-248
ure	-249
▁then	-250
our	-251
ci	-252
▁will	-253
ud	-254
eop	-255
▁want	-256
eople	-257
iv	-258
so	-259
▁see	-260
gh	-261
▁co	-262
ine	-263
▁more	-264
▁which	-265
▁people	-266
▁uhm	-267
▁our	-268
ose	-269
▁right	-270
▁really	-271
▁them	-272
▁because	-273
▁when	-274
▁would	-275
▁say	-276
▁qu	-277
ther	-278
are	-279
ions	-280
pt	-281
▁how	-282
per	-283
▁mo	-284
▁were	-285
▁time	-286
▁who	-287
▁cl	-288
▁act	-289
▁work	-290
one	-291
▁has	-292
ong	-293
▁had	-294
iz	-295
▁te	-296
ans	-297
▁look	-298
▁im	-299
ag	-300
▁also	-301
▁en	-302
ous	-303
▁But	-304
..	-305
ff	-306
ber	-307
ple	-308
age	-309
▁these	-310
▁In	-311
▁now	-312
▁man	-313
▁le	-314
act	-315
ice	-316
hing	-317
▁very	-318
pl	-319
▁their	-320
na	-321
itt	-322
▁any	-323
▁sa	-324
▁fe	-325
ven	-326
▁ag	-327
omet	-328
reat	-329
▁That	-330
▁ad	-331
ite	-332
▁Uhm	-333
▁other	-334
▁into	-335
og	-336
ually	-337
▁cont	-338
▁part	-339
▁way	-340
▁need	-341
ish	-342
ree	-343
▁got	-344
alk	-345
▁been	-346
▁tw	-347
iff	-348
▁over	-349
ry	-350
own	-351
ue	-352
▁his	-353
kay	-354
ick	-355
ire	-356
ace	-357
irst	-358
▁did	-359
▁every	-360
▁where	-361
ap	-362
ep	-363
ach	-364
cc	-365
▁back	-366
▁somet	-367
▁This	-368
▁He	-369
▁po	-370
▁diff	-371
ble	-372
ated	-373
▁no	-374
nder	-375
ical	-376
ass	-377
ip	-378
▁sp	-379
▁two	-380
▁than	-381
▁kind	-382
ult	-383
ase	-384
orm	-385
ia	-386
ence	-387
▁first	-388
way	-389
ations	-390
▁pr	-391
▁pre	-392
▁year	-393
▁things	-394
▁res	-395
▁spe	-396
able	-397
▁gu	-398
▁could	-399
▁un	-400
▁lot	-401
onna	-402
ary	-403
▁comp	-404
▁gonna	-405
ac	-406
▁make	-407
▁good	-408
int	-409
vel	-410
▁off	-411
ang	-412
▁app	-413
ance	-414
▁well	-415
▁those	-416
▁differe	-417
be	-418
▁talk	-419
▁Ch	-420
▁let	-421
▁ar	-422
▁something	-423
ign	-424
ittle	-425
▁use	-426
▁fo	-427
▁dis	-428
uct	-429
▁comm	-430
▁start	-431
▁actually	-432
uch	-433
▁little	-434
▁imp	-435
▁inc	-436
xt	-437
ount	-438
ress	-439
ound	-440
ens	-441
▁They	-442
rough	-443
ys	-444
▁bo	-445
ving	-446
eah	-447
round	-448
▁may	-449
▁bet	-450
▁per	-451
▁much	-452
▁ro	-453
ory	-454
▁new	-455
co	-456
ord	-457
ning	-458
ial	-459
▁through	-460
▁bu	-461
▁down	-462
▁call	-463
ition	-464
ater	-465
▁different	-466
▁again	-467
sel	-468
lo	-469
▁St	-470
ents	-471
▁Okay	-472
vers	-473
ile	-474
ian	-475
▁her	-476
▁does	-477
▁am	-478
▁she	-479
▁If	-480
▁even	-481
▁only	-482
▁under	-483
▁take	-484
▁mean	-485
ub	-486
▁sc	-487
▁said	-488
ild	-489
av	-490
▁him	-491
form	-492
ody	-493
ark	-494
ough	-495
▁What	-496
▁happ	-497
other	-498
ting	-499
...	-500
ade	-501
▁There	-502
▁day	-503
fter	-504
ors	-505
ail	-506
he	-507
▁sy	-508
ght	-509
ces	-510
▁Al	-511
fore	-512
ah	-513
ious	-514
▁most	-515
ank	-516
fe	-517
▁many	-518
ph	-519
▁put	-520
erm	-521
▁quest	-522
▁should	-523
thing	-524
▁being	-525
ject	-526
▁try	-527
▁hel	-528
▁des	-529
▁rec	-530
ft	-531
▁Now	-532
▁ke	-533
red	-534
▁inter	-535
ically	-536
▁play	-537
ates	-538
▁ph	-539
▁Yeah	-540
▁ser	-541
ons	-542
ual	-543
ved	-544
▁doing	-545
day	-546
aking	-547
▁em	-548
▁str	-549
we	-550
▁bas	-551
▁br	-552
▁bit	-553
▁help	-554
▁show	-555
▁wr	-556
ict	-557
wn	-558
▁pers	-559
▁gr	-560
▁fu	-561
ne	-562
▁rem	-563
igh	-564
▁acc	-565
▁point	-566
▁great	-567
ath	-568
▁ind	-569
▁tra	-570
▁add	-571
▁same	-572
▁rel	-573
oth	-574
ction	-575
▁stud	-576
▁num	-577
ec	-578
get	-579
▁feel	-580
ty	-581
ange	-582
self	-583
▁come	-584
▁end	-585
les	-586
▁cons	-587
▁three	-588
olog	-589
bs	-590
▁years	-591
▁around	-592
atch	-593
▁after	-594
ful	-595
stem	-596
▁still	-597
ost	-598
▁before	-599
iss	-600
▁its	-601
▁min	-602
cial	-603
ower	-604
ular	-605
▁pos	-606
urn	-607
te	-608
▁supp	-609
uc	-610
▁find	-611
▁set	-612
gr	-613
ves	-614
▁dat	-615
▁Oh	-616
▁long	-617
ative	-618
mer	-619
▁gen	-620
▁sm	-621
ib	-622
▁dec	-623
▁As	-624
▁exam	-625
ike	-626
lic	-627
ities	-628
▁bl	-629
ily	-630
ew	-631
▁fl	-632
▁cour	-633
nds	-634
ways	-635
ific	-636
▁world	-637
ward	-638
ng	-639
▁real	-640
▁big	-641
ady	-642
cess	-643
ating	-644
▁inst	-645
arch	-646
▁next	-647
▁mod	-648
▁too	-649
ise	-650
body	-651
▁import	-652
ics	-653
▁system	-654
▁might	-655
ert	-656
▁inv	-657
▁person	-658
▁ev	-659
▁used	-660
▁sl	-661
▁reg	-662
▁vide	-663
als	-664
▁Un	-665
▁bel	-666
pect	-667
▁ac	-668
ible	-669
▁why	-670
ments	-671
ational	-672
▁prod	-673
▁att	-674
ell	-675
▁rep	-676
▁fun	-677
▁life	-678
▁op	-679
▁last	-680
lect	-681
▁sim	-682
▁lear	-683
▁give	-684
▁Well	-685
▁def	-686
▁another	-687
▁How	-688
ited	-689
▁own	-690
▁form	-691
▁jo	-692
▁ear	-693
▁No	-694
▁tell	-695
ered	-696
▁Is	-697
ied	-698
lud	-699
ility	-700
▁high	-701
gan	-702
▁id	-703
▁didn	-704
▁data	-705
ix	-706
▁sure	-707
▁cr	-708
▁An	-709
▁trans	-710
▁made	-711
▁always	-712
▁important	-713
▁ask	-714
ably	-715
ought	-716
▁number	-717
ism	-718
▁met	-719
ween	-720
▁fin	-721
ract	-722
▁today	-723
ute	-724
▁happen	-725
oc	-726
erest	-727
▁ent	-728
ings	-729
▁ty	-730
▁mon	-731
▁such	-732
iew	-733
▁called	-734
▁car	-735
velop	-736
▁run	-737
▁exper	-738
▁between	-739
▁able	-740
▁sch	-741
ks	-742
▁Let	-743
right	-744
▁seco	-745
hip	-746
▁course	-747
aw	-748
▁stu	-749
▁commun	-750
▁pres	-751
▁ob	-752
oy	-753
cus	-754
akes	-755
▁count	-756
▁equ	-757
▁guys	-758
▁interest	-759
ize	-760
▁example	-761
uring	-762
ss	-763
ug	-764
ese	-765
▁love	-766
▁ins	-767
▁includ	-768
▁maybe	-769
ution	-770
▁prob	-771
▁gener	-772
▁cent	-773
▁question	-774
▁sort	-775
▁each	-776
▁partic	-777
old	-778
rib	-779
▁ass	-780
▁word	-781
▁Like	-782
ool	-783
▁list	-784
▁val	-785
▁sub	-786
▁pol	-787
▁sur	-788
▁okay	-789
▁develop	-790
▁done	-791
▁open	-792
cept	-793
▁keep	-794
▁coll	-795
ric	-796
stand	-797
▁game	-798
ope	-799
ures	-800
lish	-801
▁video	-802
ention	-803
tern	-804
▁um	-805
nce	-806
llow	-807
ull	-808
▁using	-809
blem	-810
▁fact	-811
ont	-812
io	-813
▁eff	-814
ood	-815
▁When	-816
▁giv	-817
▁exp	-818
▁top	-819
▁wee	-820
ense	-821
▁better	-822
▁build	-823
▁problem	-824
ier	-825
▁both	-826
▁fam	-827
▁ref	-828
roup	-829
▁four	-830
ars	-831
its	-832
cy	-833
▁looking	-834
any	-835
▁second	-836
▁place	-837
▁term	-838
ever	-839
▁found	-840
ized	-841
chn	-842
▁To	-843
▁move	-844
▁thought	-845
▁cur	-846
▁never	-847
▁state	-848
ee	-849
▁Bec	-850
ather	-851
▁prov	-852
ash	-853
ince	-854
vern	-855
▁understand	-856
▁ed	-857
ember	-858
ork	-859
▁probably	-860
▁pub	-861
▁el	-862
▁stuff	-863
▁Because	-864
▁bus	-865
▁read	-866
▁cou	-867
▁means	-868
land	-869
air	-870
▁lar	-871
erg	-872
formation	-873
ues	-874
▁doesn	-875
▁creat	-876
▁change	-877
▁name	-878
ren	-879
▁power	-880
▁getting	-881
up	-882
eaah	-883
ason	-884
▁comple	-885
▁process	-886
▁cor	-887
▁sign	-888
▁mem	-889
ook	-890
tty	-891
ced	-892
▁class	-893
der	-894
▁trying	-895
ave	-896
ode	-897
▁talking	-898
▁plan	-899
▁group	-900
▁book	-901
▁cre	-902
▁dist	-903
iness	-904
▁hard	-905
ouse	-906
▁belie	-907
▁Sh	-908
ness	-909
az	-910
ote	-911
ready	-912
▁eas	-913
ivers	-914
▁Or	-915
gram	-916
▁everything	-917
▁conf	-918
▁spec	-919
▁already	-920
ology	-921
ird	-922
ten	-923
led	-924
▁few	-925
▁var	-926
▁Thank	-927
▁care	-928
▁lead	-929
amp	-930
ond	-931
▁inf	-932
▁dr	-933
gin	-934
▁char	-935
ature	-936
▁level	-937
▁hand	-938
▁times	-939
▁pretty	-940
▁mark	-941
▁small	-942
▁She	-943
▁dire	-944
oney	-945
▁product	-946
end	-947
▁Alright	-948
▁follow	-949
▁while	-950
▁cle	-951
▁team	-952
▁home	-953
▁support	-954
meric	-955
▁Re	-956
▁best	-957
▁turn	-958
▁far	-959
▁med	-960
ices	-961
▁che	-962
▁working	-963
ross	-964
▁techn	-965
ax	-966
▁	-967
e	-968
t	-969
o	-970
a	-971
n	-972
i	-973
s	-974
r	-975
h	-976
l	-977
d	-978
u	-979
c	-980
m	-981
y	-982
g	-983
,	-984
w	-985
f	-986
p	-987
.	-988
b	-989
k	-990
v	-991
'	-992
I	-993
A	-994
T	-995
S	-996
x	-997
W	-998
j	-999
C	-1000
B	-1001
0	-1002
?	-1003
M	-1004
1	-1005
U	-1006
H	-1007
O	-1008
Y	-1009
P	-1010
N	-1011
q	-1012
D	-1013
-	-1014
L	-1015
z	-1016
2	-1017
R	-1018
E	-1019
