<pad>	0
<unk>	0
<s>	0
</s>	0
▁t	-0
▁th	-1
▁a	-2
in	-3
er	-4
▁the	-5
▁w	-6
▁o	-7
▁s	-8
at	-9
re	-10
ou	-11
nd	-12
is	-13
it	-14
on	-15
▁c	-16
▁b	-17
ing	-18
en	-19
▁h	-20
▁to	-21
▁m	-22
▁f	-23
an	-24
▁I	-25
es	-26
or	-27
▁p	-28
▁d	-29
al	-30
ed	-31
▁of	-32
▁l	-33
▁y	-34
▁in	-35
ar	-36
▁and	-37
▁g	-38
▁you	-39
as	-40
om	-41
ic	-42
▁that	-43
ll	-44
▁n	-45
us	-46
ow	-47
ve	-48
ion	-49
▁T	-50
le	-51
▁A	-52
et	-53
▁is	-54
ly	-55
▁e	-56
▁it	-57
ot	-58
ut	-59
▁be	-60
▁S	-61
▁wh	-62
▁re	-63
▁Th	-64
ay	-65
▁u	-66
ent	-67
▁on	-68
ere	-69
▁we	-70
ct	-71
▁ha	-72
ke	-73
ig	-74
id	-75
ver	-76
ro	-77
im	-78
▁for	-79
ch	-80
▁st	-81
▁W	-82
ld	-83
am	-84
▁this	-85
se	-86
st	-87
ur	-88
ce	-89
▁k	-90
if	-91
ith	-92
▁And	-93
▁go	-94
ad	-95
▁was	-96
ir	-97
ation	-98
ht	-99
▁B	-100
▁an	-101
▁li	-102
th	-103
▁have	-104
▁uh	-105
▁with	-106
▁do	-107
▁are	-108
▁The	-109
▁C	-110
▁as	-111
ust	-112
▁se	-113
▁r	-114
od	-115
ally	-116
▁so	-117
▁So	-118
ight	-119
▁he	-120
ter	-121
▁j	-122
▁M	-123
▁can	-124
▁like	-125
op	-126
▁Y	-127
▁H	-128
▁kn	-129
ome	-130
▁U	-131
ill	-132
ol	-133
ck	-134
▁me	-135
▁O	-136
il	-137
▁know	-138
▁or	-139
▁sh	-140
ant	-141
▁not	-142
▁at	-143
est	-144
ra	-145
▁ne	-146
▁ab	-147
ul	-148
ers	-149
▁con	-150
ould	-151
ge	-152
ore	-153
ate	-154
▁de	-155
▁pro	-156
out	-157
▁fr	-158
qu	-159
▁P	-160
▁N	-161
▁com	-162
use	-163
pp	-164
▁al	-165
▁just	-166
▁they	-167
ea	-168
ess	-169
▁ex	-170
▁what	-171
▁ch	-172
▁L	-173
▁lo	-174
um	-175
un	-176
ist	-177
art	-178
▁D	-179
ain	-180
▁your	-181
▁there	-182
ab	-183
▁v	-184
▁but	-185
▁all	-186
ive	-187
▁wor	-188
very	-189
ok	-190
▁one	-191
ure	-192
▁about	-193
▁It	-194
▁G	-195
ri	-196
▁from	-197
▁Uh	-198
em	-199
el	-200
▁F	-201
▁my	-202
▁R	-203
ity	-204
ink	-205
pe	-206
ort	-207
ind	-208
▁E	-209
▁You	-210
all	-211
▁We	-212
..	-213
and	-214
▁by	-215
os	-216
▁if	-217
▁out	-218
▁get	-219
▁up	-220
rou	-221
ment	-222
▁Wh	-223
ie	-224
▁su	-225
▁us	-226
▁some	-227
ause	-228
ake	-229
▁don	-230
▁pl	-231
▁think	-232
ies	-233
ack	-234
▁here	-235
ard	-236
her	-237
ich	-238
ear	-239
ame	-240
ect	-241
▁J	-242
res	-243
ide	-244
▁bec	-245
▁tim	-246
ry	-247
ast	-248
our	-249
▁will	-250
ud	-251
▁going	-252
ci	-253
iv	-254
▁int	-255
▁see	-256
so	-257
nt	-258
▁thing	-259
▁then	-260
ine	-261
gh	-262
▁want	-263
eop	-264
▁co	-265
eople	-266
ak	-267
▁more	-268
▁uhm	-269
▁In	-270
▁our	-271
▁qu	-272
ose	-273
▁would	-274
▁them	-275
▁right	-276
are	-277
ap	-278
▁people	-279
ions	-280
ther	-281
▁say	-282
▁time	-283
▁when	-284
▁mo	-285
ong	-286
▁really	-287
one	-288
▁cl	-289
▁had	-290
▁were	-291
▁has	-292
▁That	-293
▁how	-294
▁But	-295
fer	-296
▁which	-297
ber	-298
ag	-299
▁work	-300
▁also	-301
▁look	-302
ans	-303
▁now	-304
iz	-305
▁im	-306
▁te	-307
▁because	-308
ous	-309
▁en	-310
▁who	-311
na	-312
▁act	-313
ice	-314
age	-315
▁man	-316
ple	-317
▁sa	-318
per	-319
▁le	-320
hing	-321
pt	-322
▁sp	-323
act	-324
▁any	-325
▁fe	-326
itt	-327
kay	-328
ff	-329
▁these	-330
▁Uhm	-331
▁very	-332
ven	-333
reat	-334
ite	-335
pl	-336
▁ag	-337
▁their	-338
▁ad	-339
▁This	-340
omet	-341
ence	-342
▁his	-343
▁He	-344
og	-345
▁tr	-346
ish	-347
▁into	-348
▁cont	-349
▁part	-350
▁other	-351
ick	-352
▁got	-353
ree	-354
▁need	-355
▁tw	-356
▁did	-357
▁been	-358
▁way	-359
own	-360
ue	-361
irst	-362
ep	-363
ire	-364
ually	-365
▁over	-366
ace	-367
alk	-368
...	-369
▁back	-370
▁no	-371
ach	-372
cc	-373
ble	-374
nder	-375
▁every	-376
ated	-377
▁K	-378
ip	-379
▁po	-380
ass	-381
▁than	-382
▁somet	-383
▁two	-384
ia	-385
ase	-386
ical	-387
onna	-388
▁first	-389
▁where	-390
▁dif	-391
ult	-392
way	-393
orm	-394
▁gonna	-395
▁pr	-396
▁pre	-397
▁un	-398
▁res	-399
▁gu	-400
▁could	-401
▁good	-402
able	-403
ary	-404
ations	-405
▁year	-406
▁inter	-407
▁Ch	-408
ac	-409
ang	-410
eah	-411
▁let	-412
▁kind	-413
int	-414
▁comp	-415
vel	-416
▁make	-417
▁app	-418
▁Okay	-419
ance	-420
▁ar	-421
▁things	-422
▁fo	-423
ound	-424
ign	-425
▁dis	-426
be	-427
▁lot	-428
ittle	-429
▁They	-430
xt	-431
▁something	-432
▁well	-433
uch	-434
uct	-435
▁differ	-436
▁her	-437
▁use	-438
▁talk	-439
▁imp	-440
▁What	-441
▁comm	-442
▁little	-443
ount	-444
ress	-445
▁start	-446
▁ro	-447
▁bo	-448
ens	-449
▁those	-450
co	-451
round	-452
▁inc	-453
ory	-454
▁off	-455
▁St	-456
ater	-457
rough	-458
ys	-459
ving	-460
▁she	-461
ord	-462
▁down	-463
▁V	-464
▁per	-465
▁much	-466
ial	-467
▁new	-468
▁may	-469
▁call	-470
▁actually	-471
▁bet	-472
ning	-473
▁Al	-474
▁If	-475
▁him	-476
sel	-477
ition	-478
lo	-479
▁There	-480
▁again	-481
ian	-482
ub	-483
▁through	-484
▁am	-485
ile	-486
▁Yeah	-487
ah	-488
other	-489
ents	-490
▁said	-491
▁does	-492
vers	-493
▁bu	-494
▁only	-495
▁take	-496
▁spe	-497
av	-498
ild	-499
▁sc	-500
ark	-501
▁mean	-502
ank	-503
▁under	-504
ough	-505
fter	-506
▁different	-507
ody	-508
ade	-509
ting	-510
▁happ	-511
▁even	-512
form	-513
ght	-514
▁day	-515
he	-516
ail	-517
▁quest	-518
fore	-519
▁Oh	-520
ors	-521
erm	-522
ces	-523
▁sy	-524
▁should	-525
▁On	-526
▁most	-527
ph	-528
▁Now	-529
▁hel	-530
ved	-531
▁many	-532
ject	-533
ious	-534
thing	-535
▁ke	-536
▁des	-537
▁put	-538
▁rec	-539
▁try	-540
▁br	-541
▁Be	-542
ft	-543
day	-544
ons	-545
ates	-546
▁ph	-547
▁being	-548
ict	-549
▁help	-550
▁rem	-551
▁ser	-552
▁em	-553
wn	-554
ife	-555
▁wr	-556
we	-557
ull	-558
▁str	-559
ual	-560
▁gr	-561
ath	-562
▁tra	-563
▁play	-564
oth	-565
▁As	-566
▁pers	-567
▁bit	-568
▁show	-569
self	-570
ically	-571
▁great	-572
ction	-573
▁add	-574
▁point	-575
▁doing	-576
▁feel	-577
▁acc	-578
▁come	-579
▁rel	-580
ange	-581
▁num	-582
les	-583
ty	-584
te	-585
▁same	-586
▁bas	-587
igh	-588
▁stud	-589
get	-590
▁after	-591
▁cons	-592
▁ind	-593
ost	-594
urn	-595
atch	-596
▁end	-597
▁three	-598
ower	-599
ful	-600
iss	-601
bs	-602
▁years	-603
ew	-604
▁around	-605
olog	-606
▁min	-607
▁still	-608
▁before	-609
▁its	-610
uc	-611
▁An	-612
▁find	-613
▁No	-614
▁How	-615
▁long	-616
▁Is	-617
▁too	-618
stem	-619
▁Well	-620
ves	-621
▁pos	-622
ib	-623
▁sm	-624
mer	-625
▁fl	-626
ular	-627
nds	-628
aking	-629
▁bl	-630
ily	-631
▁supp	-632
▁set	-633
cial	-634
▁next	-635
ative	-636
▁def	-637
gr	-638
▁dec	-639
red	-640
ady	-641
lic	-642
▁world	-643
ward	-644
▁gen	-645
▁exam	-646
ike	-647
ating	-648
ise	-649
right	-650
cess	-651
arch	-652
▁used	-653
ways	-654
ities	-655
▁real	-656
ific	-657
▁import	-658
▁Un	-659
▁sl	-660
▁cour	-661
ell	-662
body	-663
▁mod	-664
▁Let	-665
▁big	-666
ics	-667
als	-668
ng	-669
▁person	-670
▁dat	-671
▁To	-672
▁bel	-673
▁inv	-674
▁ev	-675
▁system	-676
▁life	-677
▁inst	-678
▁att	-679
▁reg	-680
ert	-681
lect	-682
▁op	-683
▁might	-684
ible	-685
▁last	-686
▁For	-687
ied	-688
▁why	-689
▁another	-690
▁rep	-691
▁fun	-692
pect	-693
▁ac	-694
uck	-695
▁form	-696
▁tell	-697
▁jo	-698
ational	-699
ments	-700
▁sim	-701
ited	-702
▁prod	-703
▁lear	-704
▁give	-705
▁ear	-706
▁ask	-707
▁made	-708
▁own	-709
▁didn	-710
▁cr	-711
ought	-712
▁vide	-713
gan	-714
▁fin	-715
▁id	-716
▁sure	-717
▁number	-718
▁met	-719
ings	-720
ese	-721
ute	-722
▁today	-723
ix	-724
ility	-725
▁high	-726
▁important	-727
▁car	-728
▁trans	-729
oc	-730
ism	-731
▁When	-732
ably	-733
ract	-734
▁called	-735
lud	-736
▁mon	-737
▁seco	-738
▁always	-739
▁pres	-740
▁happen	-741
▁question	-742
▁ent	-743
ks	-744
ween	-745
iew	-746
aw	-747
▁equ	-748
▁data	-749
▁ty	-750
▁sch	-751
▁Se	-752
ug	-753
eaah	-754
▁count	-755
ood	-756
oy	-757
▁run	-758
ature	-759
hip	-760
▁love	-761
akes	-762
▁between	-763
velop	-764
uring	-765
ss	-766
cus	-767
▁sur	-768
ize	-769
▁exper	-770
▁cent	-771
old	-772
▁ob	-773
▁word	-774
▁such	-775
▁ins	-776
ution	-777
▁okay	-778
ope	-779
llow	-780
▁Alright	-781
▁interest	-782
▁commun	-783
▁Re	-784
▁open	-785
▁course	-786
▁Thank	-787
ool	-788
▁able	-789
▁ass	-790
▁example	-791
ren	-792
▁each	-793
▁guys	-794
▁list	-795
▁sub	-796
▁keep	-797
ric	-798
rib	-799
▁gener	-800
cept	-801
ont	-802
ather	-803
▁done	-804
▁prob	-805
==	-806
tern	-807
▁pol	-808
lish	-809
▁coll	-810
▁val	-811
▁found	-812
▁Or	-813
blem	-814
▁partic	-815
▁Bec	-816
▁–	-817
up	-818
any	-819
▁fam	-820
uff	-821
▁includ	-822
▁second	-823
der	-824
ention	-825
▁top	-826
stand	-827
▁==	-828
ember	-829
▁Like	-830
▁Because	-831
▁exp	-832
io	-833
▁thought	-834
▁never	-835
▁place	-836
▁develop	-837
▁giv	-838
▁problem	-839
ier	-840
▁She	-841
▁better	-842
cy	-843
▁eff	-844
▁Sh	-845
ince	-846
▁maybe	-847
land	-848
▁four	-849
ever	-850
ars	-851
roup	-852
▁move	-853
air	-854
ook	-855
its	-856
▁name	-857
▁cur	-858
ave	-859
▁game	-860
▁video	-861
▁fact	-862
▁both	-863
ense	-864
▁term	-865
▁using	-866
▁wee	-867
▁looking	-868
▁Do	-869
▁power	-870
und	-871
▁el	-872
▁state	-873
▁build	-874
ized	-875
▁lar	-876
ash	-877
chn	-878
ouse	-879
▁sort	-880
ork	-881
▁ed	-882
▁pub	-883
▁cor	-884
▁plan	-885
erg	-886
▁change	-887
▁prov	-888
formation	-889
▁read	-890
▁probably	-891
▁understand	-892
ness	-893
▁comple	-894
ird	-895
eak	-896
▁mem	-897
▁sign	-898
▁cou	-899
▁means	-900
▁belie	-901
end	-902
vern	-903
ced	-904
ues	-905
ote	-906
▁bus	-907
▁dist	-908
▁process	-909
tty	-910
▁doesn	-911
▁class	-912
ason	-913
▁hard	-914
▁group	-915
▁hand	-916
led	-917
ten	-918
az	-919
▁home	-920
▁book	-921
▁che	-922
▁creat	-923
amp	-924
▁cap	-925
▁Fr	-926
▁cre	-927
gin	-928
▁few	-929
ivers	-930
▁turn	-931
▁follow	-932
▁care	-933
▁dr	-934
▁eas	-935
▁getting	-936
ode	-937
ready	-938
▁All	-939
▁Br	-940
▁far	-941
gram	-942
ond	-943
▁char	-944
ology	-945
▁trying	-946
▁already	-947
▁cle	-948
▁head	-949
ax	-950
▁old	-951
▁	-952
e	-953
t	-954
o	-955
a	-956
n	-957
i	-958
s	-959
r	-960
h	-961
l	-962
d	-963
u	-964
c	-965
m	-966
y	-967
g	-968
w	-969
f	-970
,	-971
p	-972
.	-973
b	-974
k	-975
v	-976
'	-977
I	-978
T	-979
A	-980
S	-981
W	-982
x	-983
j	-984
C	-985
B	-986
?	-987
0	-988
M	-989
1	-990
O	-991
H	-992
Y	-993
U	-994
P	-995
N	-996
D	-997
q	-998
L	-999
-	-1000
z	-1001
R	-1002
2	-1003
G	-1004
E	-1005
F	-1006
J	-1007
9	-1008
5	-1009
3	-1010
K	-1011
8	-1012
4	-1013
V	-1014
6	-1015
7	-1016
=	-1017
!	-1018
–	-1019
