<pad>	0
<unk>	0
<s>	0
</s>	0
▁t	-0
he	-1
▁a	-2
▁the	-3
in	-4
▁s	-5
▁w	-6
▁o	-7
re	-8
nd	-9
▁b	-10
▁h	-11
er	-12
▁m	-13
▁i	-14
ou	-15
▁c	-16
▁f	-17
at	-18
ed	-19
en	-20
▁of	-21
▁and	-22
on	-23
▁to	-24
▁th	-25
▁p	-26
▁d	-27
ing	-28
is	-29
or	-30
es	-31
▁he	-32
▁in	-33
▁l	-34
ar	-35
it	-36
an	-37
as	-38
ll	-39
▁n	-40
▁g	-41
om	-42
▁be	-43
▁ha	-44
▁e	-45
le	-46
ic	-47
ot	-48
▁wh	-49
ow	-50
ut	-51
▁y	-52
▁it	-53
ve	-54
▁that	-55
ly	-56
ld	-57
▁was	-58
st	-59
se	-60
ent	-61
▁on	-62
▁re	-63
gh	-64
id	-65
ion	-66
im	-67
ce	-68
▁u	-69
▁you	-70
al	-71
▁for	-72
ver	-73
▁we	-74
▁as	-75
ay	-76
▁his	-77
ith	-78
et	-79
ir	-80
▁r	-81
▁st	-82
▁with	-83
ur	-84
ad	-85
ght	-86
▁is	-87
▁an	-88
▁not	-89
▁had	-90
ac	-91
▁her	-92
her	-93
am	-94
▁at	-95
ould	-96
oo	-97
▁se	-98
▁but	-99
ter	-100
▁fr	-101
▁k	-102
ain	-103
▁she	-104
▁sh	-105
▁su	-106
ch	-107
ill	-108
▁me	-109
▁him	-110
ight	-111
ro	-112
ct	-113
▁so	-114
red	-115
all	-116
il	-117
ess	-118
▁de	-119
▁sa	-120
ke	-121
ore	-122
ich	-123
▁they	-124
▁by	-125
▁all	-126
▁have	-127
▁whe	-128
ri	-129
▁con	-130
▁ne	-131
▁my	-132
▁which	-133
pe	-134
▁this	-135
▁ch	-136
▁li	-137
ome	-138
▁j	-139
ul	-140
qu	-141
▁from	-142
ge	-143
▁or	-144
▁v	-145
▁do	-146
th	-147
▁up	-148
and	-149
ard	-150
us	-151
▁were	-152
est	-153
▁ex	-154
▁one	-155
ation	-156
▁there	-157
▁who	-158
ie	-159
ant	-160
▁no	-161
pp	-162
res	-163
▁man	-164
ble	-165
▁al	-166
ous	-167
ust	-168
ers	-169
fe	-170
▁go	-171
our	-172
▁said	-173
▁fe	-174
▁them	-175
▁are	-176
nt	-177
ist	-178
very	-179
art	-180
ast	-181
os	-182
lf	-183
ind	-184
ame	-185
▁int	-186
▁their	-187
ate	-188
ra	-189
▁when	-190
▁com	-191
▁would	-192
ong	-193
▁kn	-194
▁le	-195
out	-196
▁wor	-197
ol	-198
em	-199
ood	-200
▁ab	-201
ound	-202
▁if	-203
um	-204
▁out	-205
ak	-206
ig	-207
ough	-208
▁will	-209
▁what	-210
▁been	-211
ap	-212
un	-213
one	-214
if	-215
ven	-216
ive	-217
▁tr	-218
▁pro	-219
▁ar	-220
▁pl	-221
itt	-222
ther	-223
own	-224
▁un	-225
▁br	-226
reat	-227
ity	-228
▁sp	-229
ook	-230
▁af	-231
ost	-232
ort	-233
▁pr	-234
▁qu	-235
▁then	-236
self	-237
▁ag	-238
▁en	-239
ack	-240
hed	-241
▁tw	-242
▁am	-243
ure	-244
ose	-245
ace	-246
ck	-247
au	-248
▁more	-249
▁can	-250
ake	-251
pt	-252
▁some	-253
▁could	-254
▁any	-255
▁tim	-256
ag	-257
ry	-258
▁your	-259
▁cl	-260
ies	-261
el	-262
op	-263
▁into	-264
ine	-265
ance	-266
ond	-267
▁now	-268
ved	-269
▁ro	-270
▁other	-271
hing	-272
▁gr	-273
are	-274
ass	-275
▁im	-276
ment	-277
able	-278
▁us	-279
ide	-280
ence	-281
▁than	-282
▁dis	-283
cc	-284
▁very	-285
▁did	-286
▁ad	-287
▁bl	-288
ice	-289
way	-290
▁bo	-291
▁mr	-292
▁know	-293
fore	-294
ep	-295
▁time	-296
urn	-297
ite	-298
ade	-299
▁like	-300
ought	-301
ab	-302
▁how	-303
▁te	-304
▁our	-305
ci	-306
ally	-307
▁about	-308
▁has	-309
ittle	-310
wn	-311
ish	-312
pl	-313
▁little	-314
▁great	-315
ove	-316
other	-317
▁over	-318
de	-319
▁after	-320
▁look	-321
▁per	-322
▁see	-323
▁again	-324
ings	-325
▁fl	-326
▁upon	-327
▁only	-328
ink	-329
nder	-330
ree	-331
▁day	-332
ars	-333
we	-334
▁too	-335
ire	-336
age	-337
ress	-338
▁should	-339
▁hand	-340
▁pe	-341
ty	-342
ile	-343
▁say	-344
ount	-345
ves	-346
▁po	-347
▁two	-348
▁its	-349
ving	-350
per	-351
ord	-352
ked	-353
▁thr	-354
te	-355
tain	-356
ather	-357
▁well	-358
▁before	-359
▁good	-360
▁mar	-361
ions	-362
▁down	-363
ious	-364
▁made	-365
▁pre	-366
act	-367
ue	-368
ated	-369
▁mu	-370
▁where	-371
ber	-372
▁fir	-373
ied	-374
▁every	-375
▁off	-376
ild	-377
▁sc	-378
ness	-379
▁part	-380
▁these	-381
ick	-382
▁such	-383
▁long	-384
▁may	-385
▁str	-386
ang	-387
ful	-388
▁co	-389
ward	-390
ull	-391
▁ye	-392
▁rem	-393
▁even	-394
▁under	-395
▁bec	-396
▁must	-397
ans	-398
▁sm	-399
▁never	-400
ren	-401
ect	-402
ft	-403
ud	-404
▁old	-405
▁way	-406
ary	-407
led	-408
▁come	-409
ath	-410
▁first	-411
▁bet	-412
▁men	-413
▁came	-414
▁much	-415
orn	-416
▁gl	-417
ise	-418
▁spe	-419
▁des	-420
cl	-421
ach	-422
▁fo	-423
▁think	-424
▁let	-425
▁ob	-426
▁ho	-427
▁own	-428
▁back	-429
▁here	-430
▁res	-431
▁fa	-432
ip	-433
ady	-434
▁ey	-435
▁just	-436
od	-437
▁cont	-438
ff	-439
▁thought	-440
▁cr	-441
llow	-442
iss	-443
▁himself	-444
▁comp	-445
▁through	-446
▁might	-447
▁life	-448
▁sl	-449
▁seem	-450
ave	-451
oss	-452
ried	-453
▁those	-454
ily	-455
▁imp	-456
anc	-457
ouse	-458
▁most	-459
▁acc	-460
▁comm	-461
▁cons	-462
▁pass	-463
▁bel	-464
▁em	-465
▁pres	-466
▁wat	-467
▁new	-468
ted	-469
▁ke	-470
▁went	-471
▁shall	-472
ons	-473
▁jo	-474
▁make	-475
▁beg	-476
▁car	-477
▁ap	-478
ign	-479
▁god	-480
▁get	-481
ory	-482
▁many	-483
iv	-484
ause	-485
▁call	-486
▁wr	-487
▁lo	-488
less	-489
▁don	-490
▁being	-491
▁away	-492
▁work	-493
▁cour	-494
▁turn	-495
ened	-496
▁without	-497
▁ent	-498
▁ear	-499
▁while	-500
ared	-501
▁som	-502
▁still	-503
▁last	-504
ase	-505
ix	-506
ark	-507
hes	-508
▁found	-509
▁ser	-510
▁word	-511
▁la	-512
▁wom	-513
▁eyes	-514
▁head	-515
▁app	-516
▁op	-517
▁house	-518
ople	-519
▁somet	-520
ition	-521
ors	-522
▁take	-523
les	-524
ng	-525
oth	-526
ens	-527
▁att	-528
man	-529
▁people	-530
▁yet	-531
▁ind	-532
ian	-533
iend	-534
pect	-535
fect	-536
▁char	-537
▁mat	-538
▁tell	-539
▁nor	-540
ible	-541
ew	-542
▁friend	-543
▁nothing	-544
▁young	-545
igh	-546
▁end	-547
▁ret	-548
▁three	-549
▁though	-550
ered	-551
ult	-552
▁right	-553
▁night	-554
▁count	-555
aking	-556
▁far	-557
▁rep	-558
▁sec	-559
air	-560
ub	-561
ict	-562
▁same	-563
so	-564
▁once	-565
▁put	-566
▁place	-567
ations	-568
▁want	-569
vent	-570
ia	-571
▁gen	-572
▁child	-573
av	-574
▁dist	-575
▁ever	-576
▁hu	-577
▁another	-578
▁arm	-579
▁inst	-580
▁love	-581
▁ac	-582
▁nat	-583
▁things	-584
▁heart	-585
▁eng	-586
▁saw	-587
▁father	-588
int	-589
▁supp	-590
▁rec	-591
▁face	-592
get	-593
ject	-594
ertain	-595
▁act	-596
▁pers	-597
ished	-598
sel	-599
ical	-600
ince	-601
▁sub	-602
▁inte	-603
▁war	-604
▁mo	-605
▁light	-606
gg	-607
alk	-608
ower	-609
▁mind	-610
▁world	-611
▁set	-612
thing	-613
▁gi	-614
▁happ	-615
ently	-616
▁ple	-617
▁gu	-618
orm	-619
▁rel	-620
▁form	-621
ways	-622
▁left	-623
ange	-624
ced	-625
land	-626
▁wa	-627
▁find	-628
▁mom	-629
▁because	-630
▁why	-631
▁moment	-632
▁took	-633
▁dif	-634
▁appe	-635
▁unt	-636
▁miss	-637
▁give	-638
li	-639
▁poss	-640
▁looked	-641
ling	-642
ock	-643
ss	-644
▁sur	-645
▁mrs	-646
ank	-647
ret	-648
▁against	-649
▁always	-650
▁cap	-651
▁follow	-652
ne	-653
▁thing	-654
▁king	-655
dd	-656
▁inf	-657
▁room	-658
ph	-659
▁dr	-660
ither	-661
▁years	-662
▁also	-663
▁reg	-664
ning	-665
▁sat	-666
▁seemed	-667
cess	-668
▁sw	-669
▁ans	-670
▁conf	-671
ps	-672
ual	-673
rew	-674
▁ph	-675
▁mother	-676
ner	-677
ters	-678
pped	-679
ple	-680
▁gener	-681
irl	-682
ial	-683
▁asked	-684
▁mon	-685
▁vo	-686
ail	-687
lt	-688
▁ass	-689
▁exp	-690
▁feel	-691
▁going	-692
▁home	-693
▁got	-694
cept	-695
▁cle	-696
▁few	-697
ever	-698
▁something	-699
▁knew	-700
▁each	-701
▁told	-702
der	-703
ched	-704
▁kind	-705
aught	-706
ited	-707
▁rest	-708
▁soon	-709
ined	-710
▁belie	-711
rest	-712
▁heard	-713
▁hands	-714
▁certain	-715
ru	-716
▁min	-717
▁yes	-718
▁return	-719
▁bre	-720
iness	-721
og	-722
uth	-723
▁sou	-724
most	-725
▁sil	-726
▁four	-727
▁girl	-728
▁woman	-729
▁wind	-730
ting	-731
▁near	-732
▁bu	-733
ired	-734
▁sir	-735
▁door	-736
▁lord	-737
een	-738
ool	-739
ised	-740
▁disc	-741
▁hel	-742
vers	-743
ween	-744
▁hard	-745
▁side	-746
▁between	-747
▁ma	-748
▁hum	-749
▁pur	-750
▁done	-751
aut	-752
▁col	-753
ib	-754
oub	-755
▁half	-756
▁ins	-757
ross	-758
▁el	-759
▁boy	-760
aken	-761
▁che	-762
▁six	-763
▁ref	-764
▁care	-765
▁occ	-766
▁oh	-767
ction	-768
▁ter	-769
▁tre	-770
▁inc	-771
ows	-772
▁seen	-773
▁ste	-774
ying	-775
▁eight	-776
▁both	-777
▁quite	-778
▁water	-779
lic	-780
▁better	-781
▁read	-782
ense	-783
▁hour	-784
▁ev	-785
aps	-786
▁enough	-787
ks	-788
▁having	-789
▁among	-790
ully	-791
▁name	-792
▁called	-793
▁whole	-794
ten	-795
ates	-796
▁whom	-797
▁lady	-798
▁course	-799
▁cur	-800
selves	-801
▁add	-802
▁inter	-803
osed	-804
ason	-805
▁keep	-806
▁inde	-807
▁beh	-808
ces	-809
▁lar	-810
▁dra	-811
ier	-812
ained	-813
xt	-814
ents	-815
▁sent	-816
▁does	-817
be	-818
▁days	-819
ular	-820
▁land	-821
▁sure	-822
ures	-823
gether	-824
ating	-825
▁hor	-826
▁morn	-827
▁almost	-828
its	-829
▁pleas	-830
ute	-831
▁small	-832
ale	-833
▁stand	-834
▁fore	-835
▁gave	-836
iet	-837
owed	-838
▁however	-839
▁tra	-840
▁high	-841
▁since	-842
▁fam	-843
ndred	-844
▁hundred	-845
▁turned	-846
ned	-847
up	-848
vel	-849
▁lat	-850
▁thir	-851
▁toward	-852
▁sk	-853
▁par	-854
enty	-855
▁fact	-856
▁words	-857
▁bar	-858
als	-859
▁stre	-860
▁ed	-861
ged	-862
▁began	-863
▁until	-864
▁power	-865
▁morning	-866
▁country	-867
▁white	-868
▁wi	-869
▁poor	-870
ering	-871
▁met	-872
▁felt	-873
▁bus	-874
▁mean	-875
▁open	-876
▁sim	-877
oy	-878
ton	-879
▁bro	-880
▁best	-881
▁chr	-882
du	-883
sh	-884
▁gra	-885
▁vis	-886
▁beaut	-887
aster	-888
▁art	-889
uck	-890
▁less	-891
dy	-892
▁tri	-893
▁death	-894
ins	-895
▁dark	-896
▁brought	-897
▁es	-898
aring	-899
▁present	-900
▁swe	-901
▁need	-902
▁quest	-903
ured	-904
amp	-905
▁har	-906
haps	-907
▁gre	-908
ately	-909
row	-910
▁voice	-911
▁adv	-912
▁cond	-913
▁round	-914
▁det	-915
ung	-916
▁perhaps	-917
med	-918
▁fin	-919
not	-920
dden	-921
▁next	-922
▁stood	-923
▁wond	-924
▁myself	-925
▁dear	-926
rent	-927
▁use	-928
▁underst	-929
▁spir	-930
▁person	-931
▁law	-932
▁herself	-933
▁thus	-934
cei	-935
▁anything	-936
uring	-937
▁sun	-938
▁christ	-939
tle	-940
oud	-941
ments	-942
▁sudden	-943
ief	-944
▁real	-945
▁sle	-946
▁pol	-947
▁point	-948
▁rather	-949
ont	-950
nded	-951
▁taken	-952
▁contin	-953
oney	-954
▁adm	-955
▁serv	-956
▁spo	-957
▁full	-958
▁sy	-959
ield	-960
▁pat	-961
▁interest	-962
▁help	-963
▁dre	-964
ably	-965
me	-966
ities	-967
▁doub	-968
▁matter	-969
▁aw	-970
▁ext	-971
▁till	-972
ene	-973
▁gent	-974
▁others	-975
▁air	-976
▁ele	-977
aint	-978
▁twenty	-979
▁del	-980
▁dep	-981
mb	-982
fully	-983
▁fall	-984
▁thou	-985
oun	-986
▁inv	-987
▁mil	-988
▁together	-989
▁indeed	-990
▁pri	-991
▁	-992
e	-993
t	-994
a	-995
o	-996
n	-997
i	-998
h	-999
s	-1000
r	-1001
d	-1002
l	-1003
u	-1004
m	-1005
c	-1006
f	-1007
w	-1008
g	-1009
y	-1010
p	-1011
b	-1012
v	-1013
k	-1014
'	-1015
x	-1016
j	-1017
-	-1018
q	-1019
